#version: 0.2
r e
i n
t h
e n
a n
a r
e r
t i
o n
s t
r i
th e</w>
r o
a t
o r
d e</w>
u n
a l
a c
i t
d e
o r</w>
i l
i n</w>
o n</w>
u l
e l
i c
a t</w>
ar e</w>
o m
e c
s i
u r
en t
o f</w>
u l</w>
t o</w>
p o
an d</w>
a l</w>
î n</w>
e s</w>
in g</w>
p ro
e d</w>
e a
i s</w>
e m
e s
ş i</w>
a ti
i s
ţ i
c on
l i
e r</w>
c i
s ă</w>
a m
at e</w>
en t</w>
e st
o t
re a</w>
s u
r u</w>
u i</w>
e a</w>
m a
l e</w>
s p
d i
u ro
t r
i m
c ă</w>
î n
o l
p re
uro p
s e</w>
v e</w>
q u
o u
a b
a s</w>
l a</w>
c e</w>
s t</w>
in t
e i</w>
p l
th at</w>
a n</w>
e x
e g
ent ru</w>
o p
c om
v i
p entru</w>
n o
E urop
p ri
u t
a r</w>
a d
p or
c o
c are</w>
ul ui</w>
d in</w>
e t
f or</w>
d u
i e</w>
i a</w>
el e</w>
r a
T h
qu ot
b u
quot ;</w>
& quot;</w>
w h
e n</w>
a rea</w>
est e</w>
po s
i t</w>
f or
e d
t e</w>
t re
il e</w>
a g
ati on</w>
i i</w>
l y</w>
o ri
o v
c l
e v
c u
c h
c u</w>
st r
ș i</w>
a s
a p
er e</w>
er n
al e</w>
â n
p ar
u n</w>
ea n</w>
f ic
l o
n i
c e
ti on</w>
a pos
& apos
por t
a u</w>
h a
f o
m o
il or</w>
ma i</w>
b e</w>
t o
on s</w>
n u</w>
u m
t u
f i
Europ ean</w>
a ţi
em b
p e</w>
th is</w>
Th e</w>
C om
ă r
p er
it h</w>
s o
in i
ec t
w ith</w>
u c
w e</w>
n e
re g
re s
v a</w>
p u
r e</w>
ă ri
es t</w>
ha ve</w>
o s
ul d</w>
th e
no t</w>
ti m
&apos ;
s h
l or</w>
er s</w>
el or</w>
c re
il l</w>
a v
at ă</w>
p r
b l
c ri
t ri
ţ i</w>
w ill</w>
d o
&apos; s</w>
g h
ti c
o uld</w>
a i
2 0
b y</w>
a y</w>
si on</w>
m ent</w>
e l</w>
ac est
ec on
re c
P ar
e m</w>
f in
s ti
e t</w>
t er
re n
s o</w>
po li
t ur
b i
a u
ic h</w>
v er
b e
wh ich</w>
it y</w>
d is
am ent
z ă</w>
un t</w>
on al</w>
a f
an t</w>
or d
u ri
sp ec
l eg
st ă</w>
c a</w>
U ni
si d
h as</w>
bu ie</w>
econ om
pri v
t a
t s</w>
i c</w>
tr e</w>
m ul
im port
i z
m is
ț i
f er
por t</w>
al ă</w>
en er
g u
ti v
in e</w>
a m</w>
ân d</w>
p ut
con t
k e</w>
ou r</w>
fo st</w>
l a
ur i</w>
m e
un e</w>
P re
f ac
f i</w>
t at
al l</w>
g r
e f
for m
ţi i</w>
co un
i si
il i
s unt</w>
t ă
tre buie</w>
th er</w>
p e
in d</w>
ac est</w>
w or
en d
a j
z i
o b
de r</w>
t e
A c
m emb
ro m</w>
Î n</w>
an d
du c
it e</w>
ic e</w>
ac ea
f rom</w>
ou t</w>
m ar
E U</w>
t y</w>
p i
ări i</w>
ab il
c es
u s</w>
fic i
s er
al so</w>
m on
ur e</w>
un d
& #
&# 9
st at
t ul</w>
U E</w>
S er
pre z
ă m</w>
cl u
ti ve</w>
s e
â t</w>
z e</w>
fin an
u st</w>
h i
ent s</w>
tr an
u p
a re
m in
p un
ar ă</w>
C on
am ent</w>
op er
c ur
ur m
f e
it s</w>
20 0
c ă
si g
ţ ă</w>
reg i
Com mis
w ould</w>
in g
ati ons</w>
so ci
l uc
de v
on e</w>
ti ons</w>
m an
d re
pro bl
m e</w>
s ec
g i
ol u
ai d</w>
v ot
Pre sid
fi r
re sp
su p
v o
or e</w>
t h</w>
î m
em ent</w>
b il
ed int
pr in
de cl
t ă</w>
ti es</w>
i r</w>
int ern
ar y</w>
w as</w>
ab le</w>
t en
a st
at ea</w>
Com isi
al ly</w>
e urop
de z
it ate</w>
m un
e ar
or i</w>
s it
emb er</w>
ic ă</w>
pre s
ţi e</w>
os ov
ţ a</w>
b an
m i
cu m</w>
a z
ţi a</w>
- a</w>
import ant</w>
in v
acea stă</w>
u t</w>
ea ză</w>
ri le</w>
it atea</w>
l ic
g e</w>
es ti
sti tu
t ate</w>
ea r</w>
o w
c es</w>
bu t</w>
en e</w>
&apos ;</w>
ăr i</w>
m it
Presid ent</w>
W e</w>
e re
A l
an ă</w>
probl em
c er
u s
be en</w>
r ă
the ir</w>
c h</w>
sh ould</w>
I n
d ay</w>
s aid</w>
n um
it ă
K osov
dre p
Commis sion</w>
e rea</w>
an ce</w>
s ă
ar i
d in
S tat
c r
m ust</w>
poli tic
Kosov o</w>
spec i
i st
si st
pl ic
ati onal</w>
decl ar
m ore</w>
k ing</w>
C o
re l
poli ti
d om
tre b
pri m
a y
u p</w>
c ul
t er</w>
com p
de d</w>
g an
o u</w>
o f
ini st
T ur
ag re
priv ind</w>
v en
in clu
un ea</w>
P ri
lo c
l ament
R e
gh t</w>
n ec
g re
n e</w>
M r</w>
Uni on</w>
- -</w>
finan ci
po si
I t</w>
w e
el y</w>
a ț
in u
es e</w>
li ament</w>
a in
s ch
er i</w>
ac ă</w>
u g
g ra
c an</w>
v ic
ş edint
b o
em en
d s</w>
sit u
de c
t ern
e y</w>
g o
emen ea</w>
ati ve</w>
en ce</w>
as emenea</w>
at ed</w>
di rec
ci p
v or</w>
e ană</w>
de ci
t ec
str uc
to ate</w>
m en
a se</w>
u m</w>
un c
f ap
f ie</w>
b un
b ec
M ember</w>
in a</w>
st a</w>
tr -
c an
d ic
cont inu
o ther</w>
d ing</w>
tri es</w>
k s</w>
pri n</w>
I n</w>
t ed</w>
Stat es</w>
â r
Europ e</w>
ţi on
st ri
re d</w>
nec es
f r
coun tries</w>
luc ru</w>
at eg
Par liament</w>
i ar</w>
a su
de p
al iz
ou s</w>
ne w</w>
v ol
the y</w>
y ou</w>
un i</w>
ver y</w>
b et
ar te</w>
re z
ad op
T im
un ii</w>
f a
al i
n eg
l u
s au</w>
int er
ov ern
m ă
me di
or gan
re s</w>
es s</w>
i r
ri j
ener g
Th is</w>
ec t</w>
ş ti
en s</w>
Ser b
resp on
t ing</w>
0 0</w>
ări le</w>
an i
Tim es</w>
ri lor</w>
c et
ev er</w>
memb re</w>
treb ui</w>
re port</w>
op le</w>
c ol
an s</w>
econom ic</w>
em ent
din tre</w>
om e</w>
j u
l ea
ce p
a ţi</w>
m at
ag e</w>
f el</w>
c al
wh o</w>
en ti
e ze</w>
c ad
ce ea</w>
th ere</w>
1 ;</w>
&#9 1;</w>
tr y</w>
tim e</w>
declar at</w>
d o</w>
s ur
3 ;</w>
&#9 3;</w>
pr a</w>
Par lament
asu pra</w>
pu bl
ă t
pro ces
r ul</w>
a str
b er
ş te</w>
o d</w>
in stitu
or ul</w>
o are</w>
au se</w>
o c
fo arte</w>
po lic
ab out</w>
ic i</w>
li ke</w>
c ap
aţi a</w>
w i
wor k</w>
sig ur
de mo
pe ople</w>
ed on
un ei</w>
ac edon
no w</w>
j o
v ern
U n
for e</w>
th ese</w>
Serb ia</w>
o g
ne ed</w>
pro duc
vi c</w>
pre şedint
ac e</w>
or d</w>
g ar
li m
el i
par ti
ma n</w>
fe ren
par t
o se</w>
si s</w>
s ili
c ent
m il
g overn
w el
b le</w>
20 1
an g
li c</w>
c y</w>
s ol
a ş
ar d</w>
li d
s in
coun try</w>
fir m
a ut
g ro
prez ent
it ă</w>
c ele</w>
o ci
v e
f und
ea s
tran sp
mo d</w>
co oper
G re
C ro
v ă</w>
ent e</w>
cu t</w>
el op
ţ in
po tri
e ur
su b
an i</w>
Co un
a pro
R om
al s</w>
D e</w>
ci l</w>
po zi
gh ts</w>
per i
ț ii</w>
în tr-
n u
is l
is su
str ateg
s c
în t
sec uri
Con sili
on g</w>
ma j
pro tec
s a</w>
on ly</w>
gr am
tr a
dez vol
b at
d acă</w>
g ener
p ă</w>
eg r
reg ul
Coun cil</w>
în tre
B el
f av
en i</w>
acest ea</w>
M acedon
sup port</w>
m ân
m ents</w>
st abil
Europ eană</w>
on ale</w>
eur o</w>
gu vern
un ui</w>
sp re</w>
P ro
mul t</w>
al is
d ou
d ar</w>
p ac
h e</w>
bec ause</w>
i g
s ect
ini str
es c</w>
en i
sp rij
ow ever</w>
d at
b r
ț i</w>
i l</w>
im pl
t a</w>
cul tur
is h
pu b
es s
we en</w>
pro m
an e</w>
is h</w>
o are
vi z
bet ween</w>
c ut
c ât</w>
Tur k
su m
f ă
ti z
z i</w>
ori i</w>
ra port
A n
s olu
2 0</w>
ac este</w>
fap tul</w>
cad rul</w>
w ere</w>
ac ord
Europ a</w>
m y</w>
un d</w>
pro pos
dev elop
a ză</w>
tim p</w>
M inist
import an
dis cu
s -a</w>
B i
Comisi a</w>
ex i
1 9
pub lic</w>
Comisi ei</w>
tran s
ni v
mar k
er ii</w>
ţi ei</w>
con tri
s em
polic y</w>
un i
ar g
wi th
no astr
con di
v es</w>
uri le</w>
put ea</w>
u ti
wh at</w>
politic al</w>
at ing</w>
am e</w>
em pl
speci al</w>
cet ă
an y</w>
leg isl
ev er
ac ord</w>
com un
pro vi
că tre</w>
po ate</w>
Al ban
c el
no i</w>
s el
pro gram
du pă</w>
t w
st and
h o
in to</w>
st ate</w>
or s</w>
ri s
dezvol t
pro v
com pl
C h
dep end
c ând</w>
v al
con sid
m are</w>
e ve</w>
a ți
c i</w>
si on
B ul
su ch</w>
ex t</w>
ic i
d ur
b er</w>
lo b
en cy</w>
vi e
sh i
s k
n ev
M on
l ed</w>
ri ghts</w>
ţi ile</w>
si ble</w>
demo cr
ş t
en ii</w>
ţ ilor</w>
s y
fac e</w>
n o</w>
tu rile</w>
n ă</w>
T re
g et</w>
y ear</w>
consid er
s ed</w>
sch im
u d
so lid
Uni unea</w>
h el
t al
e fici
h e
ar ds</w>
or der</w>
st e</w>
Bi H</w>
w ay</w>
ain st</w>
si m
f ol
tic ul
par te</w>
re fer
p ul
l an
ay s</w>
di f
a plic
ac e
ori tă
Î n
d ori</w>
ag ainst</w>
ec tiv
pre cum</w>
s cri
pro pun
ci tiz
co ur
de spre</w>
r an
ati c</w>
oare ce</w>
S ou
al te</w>
lo w
ol og
pri vi
i f</w>
y ear
mo st</w>
ci a</w>
s ure</w>
c ar
g h</w>
en d</w>
th an</w>
urm are</w>
in ţ
li ber
îm potri
ân ă</w>
par ticul
man y</w>
z a</w>
aţi e</w>
do ar</w>
mul te</w>
ar a</w>
ta ke</w>
g et
c â
tat ea</w>
ac tiv
s -
Europ ene</w>
nev o
Uni unii</w>
re f
Ser bi
ăr ă</w>
it or</w>
ast fel</w>
si ons</w>
ti v</w>
govern ment</w>
com e</w>
ex ist
acea sta</w>
in du
c au
l ui</w>
ri i</w>
de oarece</w>
b eli
is e</w>
h is</w>
S E
d ul</w>
ci i</w>
o bi
wh en</w>
ț ie</w>
f re
am p
cri sis</w>
împotri va</w>
privi re</w>
o vic</w>
ac um</w>
a firm
financi al</w>
ma ke</w>
ut e</w>
ţ ile</w>
s ome</w>
ri e</w>
cont ro
t in
dom eni
the m</w>
g ă
m inistr
ov er</w>
i de
a sigur
t ot
th ose</w>
un a</w>
in f
tw o</w>
com m
in cre
D e
ect ed</w>
ser v
st an
g lob
j a</w>
er ile</w>
aţi i</w>
ag ri
citiz ens</w>
h n
ac ces
year s</w>
for m</w>
fir st</w>
ab il</w>
ser vic
impl ement
i d
exi stă</w>
m inist
priv e
er ilor</w>
ce l</w>
v ed
Macedon ia</w>
prez int
soci al</w>
în ce
stat ele</w>
ing s</w>
per so
în să</w>
în tre</w>
lo c</w>
înt â
c or
p en
cl ear</w>
p ână</w>
europ ene</w>
Minist er</w>
st s</w>
re ad
pun c
Parlament ul</w>
o am
h u
re spec
organ iz
l d</w>
be ing</w>
e i
t ly</w>
ma de</w>
re qu
g res
b en
ori lor</w>
pe ti
a -
inv esti
prin cip
li g
de b
ol d</w>
ț ia</w>
in t</w>
e -
ul e</w>
agre ement</w>
sy st
în ch
ea st</w>
M ar
an ia</w>
d ată</w>
pro du
p ă
Sou th
E ste</w>
shi p</w>
o fer
0 00</w>
c ed
in form
de pl
ac cep
Ac ea
t at</w>
C u</w>
dou ă</w>
N A
ac h</w>
1 0</w>
u se</w>
ev a</w>
p ăr
ţ ei</w>
A f
ac tu
re form
ț ă</w>
ic a</w>
int ere
i es</w>
mun că</w>
l ev
ati v</w>
intern ational</w>
po t</w>
H owever</w>
al l
bu d
an u
su s
v ing</w>
wel l</w>
T O</w>
el ec
th in
A m</w>
ef f
N u</w>
con c
aţi ei</w>
f ur
the re
a i</w>
f ul
a ren
South east</w>
pro pri
gar ia</w>
str um
cur ren
r up
en g
int egr
beli eve</w>
energ y</w>
su c
ă tă
ect s</w>
th ro
th ing</w>
a in</w>
ec h
in ă</w>
pu t</w>
int en
ti c</w>
mark et</w>
ec tive</w>
re du
r at
o y
B al
acest ui</w>
acest a</w>
as s
su res</w>
ved ere</w>
struc tur
Cro ati
e z</w>
B os
par t</w>
aj ut
parti cip
eas că</w>
uri lor</w>
a d</w>
o m</w>
cetă ţ
ut ure</w>
in depend
t or</w>
prezint ă</w>
ex p
ac k</w>
NA TO</w>
f unc
a int
m ea
po pul
SE Times</w>
L is
ter m
or t</w>
ori ties</w>
a k
si a</w>
de m
sol ic
i ei</w>
Bel gra
th re
schim b
ar m
in strum
f uture</w>
W h
tu rilor</w>
it oare</w>
ări lor</w>
ra port</w>
ită ţii</w>
m ent
o area</w>
ha d</w>
t ului</w>
D le</w>
In tern
com peti
c az
pres ent
or y</w>
co uld</w>
m om
f ără</w>
develop ment</w>
A r
v or
g en
w n</w>
e k</w>
there fore</w>
pro i
av ea</w>
on a</w>
vi ol
u z
e ther</w>
E x
at ul</w>
un g
s uri</w>
D i
lo w</w>
mea sures</w>
wh ere</w>
de rea</w>
Turk ey</w>
e p
ob lig
b az
europ ean</w>
te e</w>
res ul
situ ation</w>
int ro
m ili
pr ac
ă to
s es</w>
uti li
fund ament
thin k</w>
n or
s âr
o cu
at ât</w>
fic e</w>
un or</w>
au th
c ea</w>
er ci
Bul garia</w>
si der</w>
l in
for ma
st at</w>
ș edint
pro gres
issu e</w>
ul tim
L i
ori ty</w>
af ter</w>
ac t</w>
preşedint e</w>
n er
n aţi
la st</w>
s ay</w>
în că</w>
niv el</w>
19 9
r s</w>
o ti
acest ei</w>
ev en</w>
on g
ni fic
n ed</w>
ţ ări</w>
as ed</w>
ț a</w>
vo m</w>
Pri n</w>
Ac est
nevo ie</w>
l l</w>
or a</w>
cri min
intern aţi
d ra
hu man</w>
ot h</w>
con f
an k</w>
per s
h ere</w>
pos sible</w>
un der</w>
bil ity</w>
S p
n at
c lim
di c</w>
ex tern
D em
cent r
o re
av em</w>
ic al</w>
l ing</w>
em ents</w>
am end
read y</w>
ang aj
is ed</w>
ri ght</w>
dom n
ig n</w>
i an</w>
er n</w>
sp un
pl an
ent ă</w>
s en
und er
ac h
utili z
afirm at</w>
di fic
soci et
sist em
ch an
r on
ac el
E U
si ve</w>
pro f
l um
so ur
neg oci
it ed</w>
s al
c ord
res c</w>
af l
econom ică</w>
1 1</w>
con tr
ma g
al eg
fi c</w>
ug h</w>
v ed</w>
re prezintă</w>
de s
Alban ia</w>
ec e</w>
politi că</w>
qu es
se e</w>
s ame</w>
s ing</w>
o s</w>
ter i
w s</w>
al ity</w>
noastr e</w>
leg al</w>
ad er
po l
dec ât</w>
Consili ului</w>
ab ile</w>
fa ţă</w>
sect or</w>
f on
şt i</w>
emb rie</w>
securi ty</w>
p at
an um
e for
com mit
k ed</w>
posi tion</w>
n ational</w>
on ală</w>
lev el</w>
ou gh</w>
ș te</w>
econom ice</w>
tur i</w>
200 9</w>
proces s</w>
al ul</w>
an a</w>
Ac est</w>
vot e</w>
en ilor</w>
fac t</w>
R eg
ab l
de s</w>
bu get
j ust</w>
r ând</w>
r i</w>
t em
a dev
pre ședint
vi t</w>
j ect</w>
Parlament ului</w>
un t
vie w</w>
A s</w>
h op
ex tre
mă suri</w>
dez bat
conc ern
uc h</w>
t ut
s ale</w>
bun ătă
wor ld</w>
r u
n ing</w>
c ei</w>
un ile</w>
mil it
Commis sion
ri t
neg oti
e p</w>
pl ace</w>
e vi
v ă
empl oy
m er
la w</w>
în aint
m ed
res olu
ser i
con stitu
ti onal</w>
îm bunătă
i rea</w>
ta k
e duc
s m
sti ll</w>
b oth</w>
re aliz
en sure</w>
li on</w>
ac hi
inv est
mo d
indu stri
respon s
in s</w>
H er
thro ugh</w>
c in
publ ic
l uni</w>
ju sti
comp ani
ch esti
sprij in
en ţa</w>
re prezent
s f
S t
syst em</w>
com is
go od</w>
pro ced
î şi</w>
r ul
rez ul
discu s
deb ate</w>
P o
n ici
sem n
chan ge</w>
e di
ţ in</w>
ver s
dur ing</w>
con struc
a st</w>
gener al</w>
m ă</w>
abil ă</w>
într- o</w>
re as
v is
ord in
com mun
requ i
aplic are</w>
w ant</w>
Commission er</w>
1 2</w>
do cu
sk i</w>
ap p
s ul</w>
ab or
at er</w>
th en</w>
domeni ul</w>
prive şte</w>
unc i</w>
to day</w>
wh ile</w>
ă zi</w>
ţ ine</w>
c ra
S ec
po w
f am
ow n</w>
put em</w>
et s</w>
u r</w>
su bl
f ai
contri bu
c op
x im
peri o
am n
per m
ho w</w>
im pac
y ing</w>
ta in</w>
propos al</w>
in di
in ţă</w>
ar ly</w>
conf lic
ati ce</w>
s ul
fo re
v en</w>
si v</w>
ar i</w>
să u</w>
re duc
f em
M ad
is m</w>
can not</w>
B ar
with in</w>
continu e</w>
prin ci
p tă
ci ei</w>
ş i
e uro
im ent
di es</w>
hi gh
de ja</w>
a ş</w>
m uch</w>
resolu tion</w>
an ul</w>
ab ord
de f
al u
ti on
p ul</w>
do es</w>
într- un</w>
ac y</w>
ţi ilor</w>
să -
ex pl
at er
sour ces</w>
vot ed</w>
prez ent</w>
vot at</w>
o cr
vor b
Th at</w>
al ready</w>
transp aren
inclu ding</w>
o k</w>
est abl
re t
c ro
ini ti
al i</w>
h ea
201 0</w>
resp ect
c a
ed in
ti ce</w>
rez olu
b a
bud get</w>
no u</w>
ra p
it ori
fav oarea</w>
fi ind</w>
ma in</w>
Tre buie</w>
neces s
subl ini
prim ul</w>
luc r
Dem ocr
ev alu
it al</w>
ov ina</w>
stri c
vi ron
Acea sta</w>
a spec
con clu
scri s</w>
Tur cia</w>
particul ar</w>
hel p</w>
con solid
d ov
Th ere</w>
aţi ile</w>
europ eană</w>
s ing
is t</w>
regi on</w>
c ase</w>
c elor</w>
cultur al</w>
at y</w>
aut orită
î i</w>
num ber</w>
drep turile</w>
un g</w>
om ului</w>
at unci</w>
cord ing</w>
pl y</w>
om en</w>
dif feren
ef for
b ine</w>
o w</w>
O N
ce rea</w>
vo c
fă cut</w>
in forma
cre d</w>
D ec
d en
int e
S ch
part ea</w>
posi bil
M il
f l
comm on</w>
pl an</w>
ch iar</w>
tre i</w>
ti că</w>
bi l</w>
politi ce</w>
s- au</w>
între prin
k ers</w>
de mon
ţ e</w>
p er</w>
el ect
sin ce</w>
t un
at en
o fici
av ut</w>
ac ţi
ac tion</w>
an c
aț i</w>
ți on
st ar
er i
u e</w>
op en
b on</w>
sigur an
po int</w>
ament ul</w>
con sider</w>
Mad am</w>
ur g
h al
Croati a</w>
protec tion</w>
n ia</w>
tim pul</w>
di fer
bu sin
issu es</w>
Consili ul</w>
drep turilor</w>
dezvolt are</w>
f el
ur s
in dic
an ti
fav our</w>
pi e
l ament</w>
n ici</w>
t en</w>
w ards</w>
re port
e qu
si t</w>
ati s
D E</w>
ed s</w>
es en
glob al</w>
Acest a</w>
ques tion</w>
cooper ation</w>
ră spun
p ur
im plic
inte res
rec ent</w>
l ar
en viron
con sum
solic it
p h
k o</w>
sp us</w>
re co
ent ul</w>
deci z
l ov
G er
Serbi an</w>
rec un
cl ar</w>
n ext</w>
problem e</w>
ro le</w>
di al
d ă</w>
inv ol
noastr ă</w>
il y</w>
at ely</w>
ur ă</w>
tra de</w>
er c
I s
gu r</w>
ari an</w>
with out</w>
tr at
necess ary</w>
institu tions</w>
o l</w>
î l</w>
m es</w>
gar an
pro ce
Bos nia</w>
perso ane</w>
uro r</w>
pu s</w>
ag a</w>
inform ation</w>
op port
of fici
a sp
că l
3 0</w>
ex empl
ţ el
om e
ă r</w>
financi are</w>
hop e</w>
s af
s et</w>
stat elor</w>
C ent
200 8</w>
auth orities</w>
Pre şedint
raport ul</w>
în treb
et ing</w>
z on
co -
tiv ă</w>
d ate</w>
ob j
tut uror</w>
respec t</w>
5 0</w>
il ea</w>
n ou
ast ăzi</w>
de sch
problem s</w>
b al
ou s
ce re
prom ov
b ro
b ă</w>
es p
par lament
tak en</w>
t el
d res
ţ um
ur a</w>
m ul</w>
ov er
a ș
are as</w>
k now</w>
eg ovina</w>
20 20</w>
gro w
thre e</w>
l arg
acest or</w>
ocu p
s i</w>
ţ ară</w>
ea m
Pri me</w>
ă tur
y our</w>
s po
is ation</w>
bu il
problem ă</w>
ou t
con fr
be fore</w>
lo cu
G ro
T o
ent ly</w>
en ţă</w>
si bility</w>
probl em</w>
ptă mân
caz ul</w>
O r
curren t</w>
drep t</w>
ter min
S tr
suc ces
es day</w>
or ului</w>
ne eds</w>
ț ei</w>
punc t</w>
sp er
comis ar</w>
o ase</w>
econom y</w>
can di
ap pro
pro t
câ t
b ased</w>
urm ă</w>
mom ent</w>
N e
t old</w>
he al
oper ation</w>
p une</w>
ci d
solid ar
un de</w>
compl et
niv el
strateg y</w>
man ag
to o</w>
D in</w>
wh y</w>
ad ă</w>
t on</w>
l s</w>
po ten
A u
it ul</w>
C E</w>
ear ly</w>
ad ministr
l ine</w>
R us
os e
ec i
af ac
af ect
ma y</w>
fi ec
deci sion</w>
ap e</w>
li mit
Tre aty</w>
a ici</w>
an ts</w>
po int
con du
ten egr
m ea</w>
B y</w>
w omen</w>
G e
t ele</w>
de st
ţ ările</w>
M un
d a</w>
nu mai</w>
d l</w>
Gre ece</w>
d r
cour se</w>
dis cut
cap ac
de put
progres s</w>
obi ectiv
pu se</w>
a im
unt em</w>
contri b
id enti
m it</w>
ini ţi
l em
o ane</w>
U N</w>
Belgra de</w>
to wards</w>
ci v
Di rec
bun ă</w>
T rat
1 5</w>
gu e</w>
fap t</w>
i e
go ing</w>
I f</w>
z bo
com erci
R a
mă sur
it er
exempl u</w>
intro du
energ e
G u
al t</w>
amp le</w>
A d
it a</w>
ad u
h owever</w>
ON U</w>
cl os
maj or</w>
particul arly</w>
0 5</w>
re li
do resc</w>
fol low
să ptămân
re ce
t area</w>
l ement
ad a</w>
bet ter</w>
am e
mul ţum
loc al</w>
cri tic
us ed</w>
l up
cât eva</w>
in ţa</w>
s ome
du rile</w>
un ă</w>
Rom ân
D acă</w>
te rea</w>
inclu siv</w>
ar ie</w>
an im
contro l</w>
un ul</w>
ati vă</w>
politic a</w>
ch il
fin al</w>
S ar
ți ile</w>
ţ ele</w>
am bi
S oci
a sist
Turk ish</w>
Par lament</w>
l es</w>
acel a
P ol
Rom ania</w>
înaint e</w>
l ul</w>
întâ l
respons abil
transp ort</w>
D om
F in
I mag
k a</w>
t om
pi a
fic ul
su b</w>
U S</w>
a w
th ough</w>
o le</w>
ta in
to t</w>
pro mis
cu v
s eam
at ului</w>
comp et
impac t</w>
democr atic</w>
ș ti
si c</w>
et ty</w>
Com mit
fici ent</w>
dif ficul
reg lement
fre ed
sf âr
st ren
u ci
g esti
euro s</w>
me ans</w>
servic i
pro te
j uri
ş edin
op ini
rap port
vi itor</w>
v in
publ ice</w>
cri me</w>
p este</w>
întreprin d
G etty</w>
Commit tee</w>
m and
er ul</w>
guvern ul</w>
stren g
o ur
dat a</w>
st ru</w>
fur ther</w>
negoti ations</w>
b ile</w>
ame work</w>
st ina</w>
regi onal</w>
ori ce</w>
an s
confr un
el im
ac k
S u
ati ves</w>
Imag es</w>
dezvolt area</w>
te hn
ex ample</w>
su st
acest ora</w>
s ăr
A F
H e</w>
ra pi
0 6</w>
sup port
ar an
employ ment</w>
ex pres
i re</w>
urm a</w>
Bal k
fi ed</w>
ți ei</w>
mili oane</w>
ta x
do wn</w>
0 9</w>
0 4</w>
tec hn
refer itoare</w>
proi ect
at es</w>
l ess</w>
do amn
T ot
g n
establ ish
Europ ei</w>
g ent
ten eg
hal f</w>
ă tate</w>
b in
Un ited</w>
b eg
re present
gi ve</w>
si de</w>
con su
soci ale</w>
L a</w>
perm ite</w>
în depl
abil ity</w>
G rup
s s</w>
p et
ut ers</w>
am b
memb ru</w>
al tă</w>
adev ăr
ex prim
i k
incre ase</w>
fac il
provi de</w>
w ri
li f
ro l</w>
put ern
gi ven</w>
Re uters</w>
Pri stina</w>
un ilor</w>
num ele</w>
problem a</w>
n ea
stand ar
S unt</w>
întâ m
R u
th s</w>
0 3</w>
F or</w>
ăto are</w>
o p</w>
vi it
u şi</w>
g g
ci r
s econ
o dată</w>
sc op
ită ţi</w>
u ş
Ge or
effor ts</w>
c as
agre e</w>
cre di
ch ang
ra rea</w>
an ovic</w>
cu m
Par ti
indi vi
ri dic
enti al</w>
br u
a să</w>
m i</w>
condi tions</w>
em s</w>
în cât</w>
președint e</w>
com bat
leg ate</w>
princi pi
tre cut</w>
fore ign</w>
ag en
er a</w>
mi gr
al es</w>
nat ur
im prov
con sul
rece i
ex per
pre gă
Lis bon</w>
l ong
Lis ab
pow er</w>
de termin
cre d
0 7</w>
mar i</w>
importan te</w>
Lisab ona</w>
D o
în ţel
du m
gr up
AF P</w>
ay ing</w>
d ers</w>
no stru</w>
Gro up</w>
g rij
ra g
me eting</w>
h ar
inclu de</w>
term s</w>
reg ard</w>
si gur</w>
asigur a</w>
ț in
as k</w>
ră zbo
d ului</w>
să n
p as
ăt or</w>
differen t</w>
Un ite</w>
w ays</w>
K o
ful ly</w>
în cer
a de
Dom n
- au</w>
f il
ţ ării</w>
gent lem
wh ether</w>
Th ey</w>
pl om
l ab
ev en
un ele</w>
on -
prom ot
resul t</w>
importan tă</w>
m ov
v er</w>
medi a</w>
e ia</w>
al a</w>
and s</w>
gentlem en</w>
cur aj
demon str
memb er</w>
pro b
sig nific
g a
i m</w>
S tate</w>
re st
r y</w>
ân g
xim ativ</w>
g o</w>
0 8</w>
ter m</w>
S k
tr i</w>
mă su
ag ain</w>
indivi du
ex tin
at ten
fundament al</w>
A g
extern e</w>
M emb
w ard</w>
in tr
pu ţin</w>
accep t
domn ilor</w>
pre sid
med ic
Gre cia</w>
men ţion
for ce</w>
sus ţin
ar ul</w>
M rs</w>
v re
co rec
cau za</w>
u ia</w>
rul es</w>
2 5</w>
prac tic
pres ent</w>
fr on
un ity</w>
ex peri
n a</w>
a vi
b ă
ori g
d le</w>
grow th</w>
is c
adop ted</w>
C red</w>
f ar</w>
pre ven
gu aran
posi bil</w>
aț ia</w>
su f
ch all
cur sul</w>
vic tim
consu mat
direc tive</w>
Domn ule</w>
ari ous</w>
fiec are</w>
to g
ad di
al itate</w>
sim p
I r
et y</w>
wri ting</w>
C i
pre v
n er</w>
c ent</w>
tog ether</w>
ma king</w>
Mon tenegr
d ori
th ir
part ener
cri ză</w>
sel f</w>
tal ks</w>
am ong</w>
U n</w>
pregă ti
li p
in st
ou se</w>
l ong</w>
P entru</w>
re ază</w>
on i
ori tatea</w>
no v
t ali
ace ea</w>
implement ation</w>
fr amework</w>
bec ome</w>
cre ș
c un
inf ra
form er</w>
baz a</w>
gro up</w>
col eg
pro voc
em p
aj un
fem e
ris m</w>
ni c</w>
re sources</w>
pun erea</w>
elec tions</w>
cer cet
demo cra
at or</w>
cetă ț
ever y
wor king</w>
politi cii</w>
sp ea
legisl ation</w>
clim ate</w>
rel ations</w>
dial o
j lo
O n</w>
n ot
ad ă
re al</w>
at s</w>
um an
reg im
leg ătur
Montenegr o</w>
cut ă</w>
proces ul</w>
di plom
servic es</w>
di d</w>
Intern ational</w>
su sp
memb ers</w>
înch ei
con sec
măsur ă</w>
al iment
ev o</w>
G ener
europ eni</w>
A v
Cro aţia</w>
fac ă</w>
speci fic</w>
apro ape</w>
k ey</w>
de a</w>
ati on
cer tain</w>
acces s</w>
achi ev
freed om</w>
dis crimin
expl o
ob serv
o t</w>
2 7</w>
gre at</w>
str ă
mil lion</w>
e k
loc uri</w>
an ului</w>
ment al</w>
th er
program me</w>
h ol
N ov
des fă
Sec uri
D up
ț e</w>
ex clu
e ur</w>
s ens</w>
ad res
d at</w>
p t
ef ec
ră mân
compani es</w>
s ays</w>
er ship</w>
Af ri
alis t</w>
ef ul</w>
heal th</w>
A t</w>
securi tate</w>
stand ards</w>
po st
produc ts</w>
fund s</w>
sust ain
ț ile</w>
Dup ă</w>
w ar</w>
per spec
th ank</w>
ob ţin
nor m
cal itate</w>
op or
preşedint ă</w>
fre e</w>
eff ective</w>
ear ch</w>
sup ra
M inistr
par ties</w>
com and
wel come</w>
situ aţia</w>
instrum ent</w>
hi gh</w>
ca z</w>
af f
regi une</w>
sect orul</w>
dre n</w>
c ăr
ec hi
polic ies</w>
Bul g
p are</w>
ț ilor</w>
neces are</w>
ur n
K ar
200 7</w>
în tr
mul ti
ju dic
am in
201 1</w>
z ile</w>
esp eci
as h
rapport eur</w>
aţi ilor</w>
redu ce</w>
str y</w>
ere d</w>
EU R</w>
c amp
P ot
perso an
c ed</w>
a il
în grij
term en</w>
sfâr ş
especi ally</w>
co e
evi d
o v</w>
pro ject</w>
f er</w>
preşedint ele</w>
politi c</w>
dec v
prive ște</w>
sprijin ul</w>
Reg ul
sem nific
ben ef
apro ximativ</w>
com une</w>
S lov
ti s
d one</w>
transp or
opport unity</w>
prov in
pol ice</w>
f t</w>
j e</w>
afac eri</w>
reli gi
inf lu
ord on
ever y</w>
mon ey</w>
dat ori
pre ună</w>
regul ation</w>
es tiv
Belgra d</w>
legătur ă</w>
feren ce</w>
direc t</w>
t ea</w>
fur ni
adă ug
nou ă</w>
ben efici
B u
cri z
pl us</w>
ţ ara</w>
do ilea</w>
C y
a j</w>
fo od</w>
me u</w>
appro ach</w>
Român ia</w>
seri ous</w>
mo de
fo cu
import ance</w>
st ep</w>
p t</w>
de al</w>
investi g
pi er
f ul</w>
a decv
cr uci
a po
w ar
drep tul</w>
D oam
ac ro
organ is
an other</w>
integr ation</w>
E r
mon ths</w>
sp une</w>
mo dific
cur s</w>
cal led</w>
pro ve</w>
s untem</w>
b une</w>
incre as
Acea stă</w>
pl es</w>
ug os
ap ăr
hea d</w>
bu n</w>
ol ul</w>
at t
afl ă</w>
a c</w>
chil dren</w>
p es
at a</w>
Wh at</w>
k e
con duc
Memb ers</w>
la v</w>
ous ly</w>
tă m</w>
U N
cont ext</w>
wor kers</w>
di ver
Sk op
ad dres
ită ții</w>
ta king</w>
en ces</w>
M i
ân du
t ea
mat ter</w>
ag es</w>
cultur e</w>
cooper are</w>
la dies</w>
apro b
A P</w>
ba sis</w>
al ele</w>
secon d</w>
M o
Par ty</w>
Rus sia</w>
am en
c all</w>
str u
su bi
ti e</w>
de fin
1 7</w>
co unt</w>
C ur
în regi
for ward</w>
câ şti
ve derea</w>
ori tate</w>
aspec t</w>
ut ă</w>
E uro
fe w</w>
end ing</w>
b order</w>
uc ât</w>
busin ess</w>
sm all</w>
produ s
prote j
b re
T a
ch el
hi m</w>
stat es</w>
înce put</w>
prim a</w>
in i</w>
aț ă</w>
we ek</w>
200 6</w>
- am</w>
finan ţ
democr acy</w>
W or
elect ri
sp un</w>
intro duc
Presid ency</w>
m ici</w>
fin d</w>
k no
bo ur
nivel ul</w>
in ov
I T</w>
ever al</w>
b ack</w>
de leg
an ii</w>
un ţ
end a</w>
pl ă
Pot ri
Potri vit</w>
E l</w>
rez ol
zi une</w>
gre ater</w>
seam nă</w>
elim in
îm preună</w>
comun ă</w>
de le</w>
şti a</w>
ită ţile</w>
ut es</w>
legisl ative</w>
m et</w>
ti al</w>
par ty</w>
Com mun
al ban
T ra
mo ve</w>
am er
energ ie</w>
and a</w>
s că
doamn elor</w>
cetăţ enilor</w>
e z
sub stan
B ut</w>
tri bun
el s</w>
con form
sist em</w>
co st
de m</w>
num er
ref l
alis ation</w>
num ăr
aş a</w>
ându -
opini on</w>
competi tiv
t ex
cre şt
A sh
c ing</w>
cooper area</w>
Gre ek</w>
ati v
acela şi</w>
h ap
de ose
li ament
în seamnă</w>
e ded</w>
respon sibility</w>
ministr ul</w>
po se</w>
ad v
Cent r
extre m</w>
com ing</w>
j ects</w>
propun erea</w>
il l
fa il
j ob
ist an</w>
D nă</w>
e th
cre ate</w>
, 000</w>
internaţi onale</w>
efor turile</w>
con cre
solu tion</w>
du rilor</w>
con ven
ai bă</w>
sprij in</w>
se qu
m et
ex cel
esen ţi
fa c</w>
il eg
thir d</w>
pozi ţie</w>
tra di
st u
fam ili
ac uz
ful l</w>
bil ater
cre ş
1 8</w>
cu ren
cre area</w>
J u
ac ti
i d</w>
si mil
re stric
job s</w>
h er</w>
recun o
a ș</w>
mulţum esc</w>
con cer
Ac cording</w>
acces sion</w>
O c
al ist
fol os
şi -a</w>
Stat ele</w>
rezul tat
milit ary</w>
financi ar</w>
ar o
naţi onale</w>
pre ci
p rea</w>
av er
y o
difficul t</w>
cetăţ enii</w>
sist ance</w>
Bar ro
posi tive</w>
be half</w>
cap it
adevăr at</w>
lea st</w>
B r
vi l</w>
vi sion</w>
ab ili
în curaj
an no
co- operation</w>
I tal
mo bil
1 3</w>
t orii</w>
re ma
st ud
follow ing</w>
agre ements</w>
mo tiv</w>
Bal can
it at</w>
politi ci
str ong</w>
ov ski</w>
propos als</w>
col l
n am
m â
problem ele</w>
fi ght</w>
f ish
an t
mon di
aț ie</w>
ader are</w>
stabil ity</w>
medi u</w>
i gh
societ y</w>
f isc
ti l</w>
S U
viz u
financi ară</w>
A m
op in
du e</w>
A ş</w>
Gener al</w>
în căl
tur n</w>
al low</w>
re form</w>
200 4</w>
l e
Ch ina</w>
z area</w>
pro gre
ter ro
Th ese</w>
câşti g
I M
l ack</w>
t ext</w>
hel d</w>
e ach</w>
b est</w>
sel ves</w>
ess ential</w>
1 6</w>
y et</w>
n on-
P e</w>
as că</w>
tim es</w>
ul y</w>
1 4</w>
con om
M ed
lum e</w>
războ i</w>
neces ar</w>
E conom
fac em</w>
conflic t</w>
fic area</w>
d ly</w>
d y</w>
st and</w>
al tern
star t</w>
res earch</w>
aş te
anum ite</w>
Ch ri
nu clear</w>
vo astr
soci ală</w>
Mon day</w>
sig ned</w>
v eg
pozi ţia</w>
politic i</w>
Bos ni
educ ation</w>
wh ole</w>
are d</w>
t ers</w>
difer ite</w>
co ordon
F ore
co he
z ut</w>
s everal</w>
A t
p as</w>
SU A</w>
sâr b
curren tly</w>
ac count</w>
bil lion</w>
el abor
îmbunătă ţi
inter ven
lif e</w>
int eg
ec an
resul ts</w>
h ot
ain ing</w>
st res
infra structur
indu stry</w>
ani an</w>
ter ori
m n</w>
f arm
achi eve</w>
I C
invest ment</w>
up s</w>
criz ei</w>
acti vi
intere sts</w>
qu ality</w>
per ic
exp ected</w>
ar de</w>
s aying</w>
Mun teneg
m ului</w>
Preşedint ele</w>
dezbat ere</w>
cl e
A s
ăt orii</w>
Dec ember</w>
re ac
initi ative</w>
maj ority</w>
com er
Str ateg
b ur
priv ate</w>
peri od</w>
im prove</w>
R i
Her z
th ers</w>
signific ant</w>
at orii</w>
o -
Croati an</w>
tot al</w>
ter itori
ord ul</w>
do i</w>
reg ar
guvern ului</w>
aț ii</w>
H ouse</w>
tr ă
re v
voastr ă</w>
m or
E C</w>
L u
v ec
ţ elor</w>
intere st</w>
lar ge</w>
dec embrie</w>
P e
chel tu
ur t</w>
Herz egovina</w>
reform s</w>
pre si
gu st</w>
en cour
offici als</w>
ec h</w>
rel ev
al ii</w>
Ru sia</w>
ați onale</w>
sk a</w>
atten tion</w>
to c
măsu rile</w>
s tim
mis sion</w>
dum nea
uman it
acest eia</w>
saf ety</w>
in e
desfă ş
mi jlo
potri vit</w>
R S</w>
ar tic
Or gan
Fore ign</w>
o ds</w>
mon th</w>
cri mes</w>
t ori</w>
h ear
b ar
k ovic</w>
mili arde</w>
ai m</w>
lin es</w>
ex cep
F on
re ally</w>
i ri
gro ups</w>
A mer
ț ări</w>
s co
ner ship</w>
Comisi e</w>
re feren
luc ră
pro ces</w>
pro jects</w>
J une</w>
ti va</w>
re uni
1 4
ch ar
ag o</w>
lan s
ent er
al itatea</w>
sp e
propos ed</w>
es tim
b ul
se par
e u</w>
M in
I v
cas es</w>
pes cu
br ing</w>
Mar ch</w>
t arg
decl ară</w>
con firm
ac cording</w>
opor tun
g er
judic i
efec tu
com promis
al ului</w>
al low
P r
tr ag
some thing</w>
d er
F or
d -
regi ons</w>
loc ul</w>
m ecan
sâr b</w>
raport ului</w>
M ay</w>
oam eni</w>
H ung
val u
obj ectiv
reprezent an
fic ation</w>
deose b
B ank</w>
commun ity</w>
on ce</w>
pl ac
într ucât</w>
ament e</w>
Barro so</w>
ar ii</w>
mar tie</w>
cri za</w>
Is ra
. .</w>
par liament
ed n
ech an
ac tive</w>
l i</w>
lo ok</w>
E n
un ie</w>
sustain able</w>
inţ e</w>
ex ec
ech ili
op en</w>
en ţei</w>
autorită ţile</w>
Alban ian</w>
cl early</w>
i unie</w>
re ze</w>
de fic
aro und</w>
B an
l una</w>
s cur
ol o
ap plic
P er
b al</w>
ac or
anno unc
de n</w>
com es</w>
t ou
p ast</w>
Munteneg ru</w>
pre mi
clim atice</w>
dumnea voastră</w>
T u
func ţion
d v
t le</w>
sh e</w>
c ere</w>
d lui</w>
m isi
mon itori
reco gn
re vizu
Trat atul</w>
fai rs</w>
sim pl
prin tre</w>
mul ţi</w>
a h
t orilor</w>
res urs
manag ement</w>
fundament ale</w>
Po li
hi st
vi zi
W edn
t orul</w>
rup tion</w>
între aga</w>
gesti on
b ază</w>
adev ăr</w>
Wedn esday</w>
Co urt</w>
reas on</w>
lim ent
creşt ere</w>
Her ţ
intern al</w>
of f</w>
cri ter
ai r
g an</w>
C ar
aspec te</w>
C ri
Doam nă</w>
ț in</w>
per mit
jo int</w>
medi ul</w>
environ mental</w>
domeni u</w>
erc uri</w>
i el
al y
ed er
chall eng
e h
as sistance</w>
ț ele</w>
s .</w>
r a</w>
m ele</w>
con fer
li e</w>
pia ţa</w>
strateg ic</w>
stim ul
ă s
stat us</w>
tr- o</w>
ac ți
an aliz
intern e</w>
re ach
objectiv es</w>
invol ved</w>
dest in
M E
memb ership</w>
produc tion</w>
I ra
ro lul</w>
al ways</w>
Ministr ul</w>
mom entul</w>
agri cultural</w>
Z agre
J anu
l it
N ik
C an
0 2</w>
requi re
continu ă</w>
nici o</w>
ex port
Ta dic</w>
v âr
l ung
B o
vo i</w>
pat ru</w>
ect ul</w>
teri or</w>
l ung</w>
D P</w>
ta x</w>
r ati
cruci al</w>
i anu
b loc
docu ment</w>
in nov
2 3</w>
m echan
agre ed</w>
t are</w>
nu cle
Janu ary</w>
per man
th ings</w>
continu a</w>
co ordin
G overn
n ers</w>
to ţi</w>
it self</w>
conform itate</w>
ne eded</w>
d ro
V o
dv s.</w>
4 0</w>
ma s
h and</w>
eas ed</w>
dialo gue</w>
ti m</w>
viol ence</w>
dis put
di stri
t ere</w>
de -a</w>
are le</w>
. ..</w>
suc ces</w>
ci vil</w>
b el
fo st
ec te</w>
0 1</w>
pre şedin
înregi str
cap ital</w>
ne w
ex erc
su s</w>
n im
de a
ianu arie</w>
continu are</w>
po ată</w>
ef t</w>
consider are</w>
an unţ
R ec
pac h
c at
2 4</w>
Th ere
ş e
princip le</w>
chesti une</w>
societ ă
sig ure</w>
ofer ă</w>
gr at
2 1</w>
tu rii</w>
F ran
chang es</w>
y -
There fore</w>
Oc to
S of
Octo ber</w>
acest uia</w>
re şte</w>
mo tiv
aț a</w>
lea ders</w>
en ța</w>
cad ru</w>
cut e</w>
îngrij or
yo ung</w>
tom b
ap prov
încer c
sub ject</w>
respon sible</w>
di st
T ran
concern s</w>
v arious</w>
h app
ess es</w>
li ght</w>
gi ei</w>
în fi
int e</w>
e fic
s ci
ad ded</w>
lu at</w>
u al</w>
res ol
a k</w>
sfârş itul</w>
ris k</w>
ap propri
1 0
ac tions</w>
tomb rie</w>
proce du
r ur
eng en</w>
c en
t i</w>
e o
Sch engen</w>
re comand
tă ţii</w>
con centr
întâm pl
re main</w>
or aş
ş tri</w>
b ul</w>
200 5</w>
w ord
s anc
perio adă</w>
mi ercuri</w>
me et</w>
prom is</w>
r ân
i stă</w>
scop ul</w>
cor up
l e-
F und</w>
acord ul</w>
propun ere</w>
N or
A st
ofer i</w>
Wor ld</w>
ci es</w>
- o</w>
vi a</w>
min im
oc tombrie</w>
u gh
F O
ra ther</w>
fund ing</w>
ad ap
k er</w>
sup liment
propun eri</w>
ar ti
loc ale</w>
N o
Macedon ian</w>
pos ed</w>
Serbi ei</w>
c ar</w>
vorb a</w>
op position</w>
rămân e</w>
rapi d</w>
Tur ciei</w>
d uri</w>
ț ările</w>
sing le</w>
p ay
Sof ia</w>
z are</w>
w ish</w>
l and</w>
ha ving</w>
c ity</w>
O l
e ks</w>
ți ilor</w>
com isi
cuv ân
k osov
urm ăto
co ali
it ing</w>
cop i
am o
mark ets</w>
li ance</w>
confrun tă</w>
z one</w>
ser ie</w>
n ess</w>
con stru
et ul</w>
en ess</w>
adop tat</w>
re pe
gr an
consum ers</w>
of ten</w>
între g
M ai</w>
ver n</w>
concern ed</w>
pers onal</w>
F e
ab o
t ro
gu vern</w>
ader area</w>
Afri ca</w>
comp any</w>
sistem ul</w>
pu să</w>
cin ci</w>
tre cută</w>
posibil itatea</w>
Nov ember</w>
fl exi
er g
produ se</w>
z ic</w>
activ itatea</w>
con d
aim ed</w>
Tu esday</w>
de sp
2 2</w>
on ia</w>
Tot uşi</w>
un til</w>
că ro
independ ence</w>
Commun ity</w>
ud a</w>
g as</w>
T ri
sum mit</w>
prob abil</w>
s et
point s</w>
neces ară</w>
ect ing</w>
dis p
Ju sti
emp ha
fi el
ăt ori</w>
pun ă</w>
spo ri
ori ent
in d
pac k
i embrie</w>
s ar
mo dul</w>
T ir
Li b
activi ties</w>
environ ment</w>
că re
s atis
p ing</w>
ati că</w>
er ă</w>
concre te</w>
Sec ret
ro ad</w>
leg i
con v
E l
W ith</w>
dep ă
av ail
Serbi a-
Balk ans</w>
prof es
independ ent</w>
w ea
at ors</w>
M la
ist ori
ajut a</w>
vo t</w>
solidar ity</w>
dori m</w>
fa ţa</w>
stat ut
c eva</w>
P or
su per
sh ow
challeng es</w>
Zagre b</w>
mod ern
ect ele</w>
comerci ale</w>
vi ous</w>
stat ement</w>
informa ţii</w>
contr ac
re st</w>
lo o
201 3</w>
1 9</w>
sig n
poten tial</w>
ul -
f our</w>
ag enda</w>
com un</w>
1 00</w>
de ed</w>
A gre
commit ment</w>
st ac
F r
tur e</w>
FO R</w>
el ui</w>
cer ut</w>
răspun s</w>
con fi
vi sit</w>
supra veg
Con sider</w>
An k
întâl ni
en ţi</w>
semn at</w>
par liament</w>
Ra port
tion ed</w>
t ată</w>
înce put
ab ly</w>
B er
po ver
is ing</w>
vi a
comun it
l ed
vers ity</w>
popul ation</w>
con ce
B ri
con sequ
ne igh
ament ele</w>
siguran ţă</w>
p ay</w>
per form
li es</w>
o asă</w>
av ând</w>
p s</w>
av an
ob stac
punc tul</w>
no iembrie</w>
recun os
th en
tr af
gr ad
ai r</w>
ne ws</w>
schim b</w>
m en</w>
cor ruption</w>
gr ani
b ri
fai r</w>
develop ing</w>
refer itor</w>
J o
ef fici
aliz area</w>
la un
t ors</w>
pro fe
open h
C openh
deciz ie</w>
l at
î și</w>
s on</w>
Tir ana</w>
vi go
ab sol
Grup ului</w>
cur ând</w>
competi tion</w>
syst ems</w>
I stan
Govern ment</w>
lum ea</w>
f y</w>
ad minist
lab our</w>
com b
im i
echi p
un z
est ern</w>
furni z
d g
dev en
ver bal</w>
z ona</w>
for tun
program mes</w>
ici p
urm ează</w>
il ă</w>
cohe sion</w>
ref u
minist ru</w>
elect or
Li ber
ac i</w>
is ă</w>
P et
viit orul</w>
A pri
ex ten
st ly</w>
so on</w>
ugos la
e ie</w>
re view</w>
pri ority</w>
o ară</w>
an te</w>
at ing
pre c
perio ada</w>
word s</w>
săr ă
ri ed</w>
2 6</w>
pre ţ
S al
2 8</w>
sh ow</w>
ish ed</w>
Apri l</w>
e ţi</w>
a pri
început ul</w>
ve dea</w>
k es</w>
redu cerea</w>
iz area</w>
mat eri
co sts</w>
F R</w>
an nu
Acest ea</w>
oam enii</w>
announc ed</w>
Gu vern
pă re
en ță</w>
Th urs
Bel ar
Ex istă</w>
oc az
stu di
ament ului</w>
B ori
m acedon
co resp
ac ţion
ter rit
d ere</w>
organ ised</w>
es cu</w>
efici ent</w>
num ăr</w>
I I</w>
de sc
Thurs day</w>
provi ded</w>
ma int
v ul
utiliz area</w>
întâl n
m ei</w>
Ac este</w>
A h
t elor</w>
r ate</w>
du m</w>
6 0</w>
u și</w>
h on
ț ine</w>
partener i
l eft</w>
acţi une</w>
finan ț
proi ect</w>
em isi
avail able</w>
tehn olog
cl ari
ț um
apri lie</w>
pro per
j uc
d ays</w>
pl ay</w>
ace ştia</w>
publ ică</w>
Re prezent
al elor</w>
n et
ea se</w>
ă n
în do
Re public</w>
th em
Istan bul</w>
f ra
concer n</w>
con curen
ass ess
Agre ement</w>
Ash ton</w>
to ată</w>
pers on
di men
su gg
men ţin
sublini ez</w>
O S
fo und</w>
dou a</w>
prim it</w>
fi ve</w>
sp or
Ank ara</w>
âr zi
to ok</w>
credi t</w>
C re
deci zi
w led
lup ta</w>
cu prin
ad ic
o thers</w>
administr ative</w>
amer ic
i ul
h n</w>
ou ght</w>
comun ic
se en</w>
obi ec
inten si
Herţ egovina</w>
re ly</w>
lu a</w>
im edi
dea una</w>
De z
In v
J uly</w>
ci uda</w>
simp li
proced ure</w>
Pro gram
De şi</w>
om s</w>
incre ased</w>
disp oni
situ aţie</w>
promot e</w>
D ev
regar ding</w>
ed ly</w>
com par
creş terea</w>
abord are</w>
victim s</w>
enter pri
5 00</w>
ajun s</w>
U S
re uş
ec olog
Med iter
feme ilor</w>
an aly
mo tion</w>
est s</w>
vigo are</w>
p ed</w>
at ory</w>
respon se</w>
b an</w>
P L</w>
prev ent</w>
adu ce</w>
pack age</w>
st abili
mar ţi</w>
M I
nici un</w>
Con ven
de red</w>
V i
re ci
individu al</w>
it ului</w>
Fe bru
pro por
iul ie</w>
Sar aj
Av em</w>
str ong
să- şi</w>
mul țum
minist er</w>
agri co
Mla dic</w>
de -
concern ing</w>
Bulg arian</w>
estiv al</w>
av o
evid ent</w>
focu s</w>
aţi onal</w>
E C
acord at</w>
re p
depl in</w>
președint ă</w>
natur al</w>
Febru ary</w>
st ep
ini rea</w>
in ță</w>
po z
ini ți
extre m
ol dov
V er
c ate</w>
S ep
de scri
Y ou</w>
Min utes</w>
rân dul</w>
ex plic
P ap
internaţi onal</w>
buget ul</w>
u a</w>
or ing</w>
F o
fe bru
V ă</w>
securi tatea</w>
fel ic
O ne</w>
streng then
propri et
d on
ră sp
qu ic
T o</w>
Er do
en ough</w>
docu ment
con form</w>
apo i</w>
actu ally</w>
us ing</w>
e es</w>
pover ty</w>
febru arie</w>
adop tarea</w>
amend ments</w>
pe ace</w>
end s</w>
a ke</w>
- term</w>
obj ective</w>
an ie</w>
mul tă</w>
maj oritatea</w>
ați ei</w>
olog y</w>
lea d</w>
men tioned</w>
îndepl in
report s</w>
rezol v
transparen cy</w>
F ir
cre ation</w>
S ol
prezent at</w>
internaţi onală</w>
addi tion</w>
Is l
solu ţion
jo i</w>
anum e</w>
mun icip
apro pi
lea der</w>
th ern</w>
d na</w>
an y
Sep t
7 -
princi ples</w>
Ag ency</w>
et n
pl ans</w>
extrem ely</w>
rema ins</w>
Saraj evo</w>
opin ia</w>
memb ri</w>
energe tică</w>
Raport ul</w>
ain ed</w>
de lor</w>
deci sions</w>
ti tu
Sept ember</w>
Pr in
Por tu
juri d
m ind</w>
r ule</w>
dom enii</w>
d ri
m ini
publ ica</w>
neces itatea</w>
jo b</w>
Dev elop
liber tatea</w>
i esc</w>
P A</w>
li ving</w>
u st
Erdo gan</w>
hot ăr
eth nic</w>
se pt
mo tive</w>
ch o
Ser b</w>
ac ter
sen si
at ori</w>
M e
Ko st
g ân
cir cum
Rom anian</w>
sept embrie</w>
esen ți
construc tion</w>
A b
ex tul</w>
ultim ii</w>
neigh bour
ev ent</w>
deven it</w>
cl ose</w>
vi itoare</w>
migr ation</w>
govern ments</w>
at ori
b os
8 0</w>
şti i</w>
Ger man
trans form
f ață</w>
S r
B ru
offici al</w>
bud get
sec ut
econom iei</w>
distri bu
ap ar
exprim at</w>
Par t
appropri ate</w>
trans fer
guaran tee</w>
m a</w>
t ab
fic are</w>
O f
O b
ans w
aleg erile</w>
to are</w>
col lea
Skop je</w>
justi ce</w>
dis ast
cal ea</w>
Securi ty</w>
mar i
sim ply</w>
Soci al</w>
Preşedint e</w>
ve h
inţ ele</w>
sistem ului</w>
acro ss</w>
a de</w>
parliament ary</w>
ită ţilor</w>
Br us
con ference</w>
fic ă</w>
Ex tern
persoan elor</w>
g ia</w>
în vă
at ac
regi unea</w>
no ştri</w>
ul- verbal</w>
ea şi</w>
ea d</w>
Brus sel
jo in</w>
Grup ul</w>
Parti dul</w>
princip al</w>
tra fic
f ri
fortun ately</w>
c o</w>
sur ing</w>
obiectiv ele</w>
l -a</w>
Ne w</w>
recei ved</w>
proces ul-verbal</w>
ili ties</w>
benef it</w>
do ing</w>
d a
ț el
fic at</w>
su fer
valu es</w>
im medi
am a</w>
cro s
ajut or</w>
tr av
represent atives</w>
protec ţia</w>
a zi
Balk an</w>
c ateg
t y
negoci erile</w>
prim -
Cy pr
tr- un</w>
re t</w>
c res
înfi inţ
olo gi
em erg
buil ding</w>
re mar
coun ter
R ad
Develop ment</w>
bo o
x el
pri me</w>
increas ing</w>
efor turi</w>
Cypr us</w>
proced ură</w>
esti c</w>
a sigure</w>
compl et</w>
in cid
Bru xel
prac tice</w>
en ia</w>
e de
speci fice</w>
ord ers</w>
for ces</w>
finan cing</w>
alist s</w>
ad ar</w>
al oc
M oldov
i -a</w>
a er
sublini at</w>
bos ni
ser ve</w>
c ot
busin esses</w>
Ri ghts</w>
organis ations</w>
mon it
consul t
anunţ at</w>
criter ia</w>
artic olul</w>
effici ency</w>
chesti uni</w>
W estern</w>
require ments</w>
număr ul</w>
man i
Kar ad
Brussel s</w>
Guvern ul</w>
addres s</w>
ţ ărilor</w>
or an</w>
confi d
Af fairs</w>
S o
2 9</w>
protec t</w>
b a</w>
în c
medi ului</w>
v ital</w>
contrib ui</w>
aim s</w>
econom ia</w>
eff ectiv
ban i</w>
OS CE</w>
j um
instrum ents</w>
ent ele</w>
consumat orilor</w>
caz uri</w>
aw are</w>
guaran te
t or
negoci erilor</w>
al ong</w>
pres s</w>
min orită
integ rarea</w>
ex amin
elec tion</w>
anti -
s ex
h old</w>
govern ance</w>
stat ului</w>
priv inţa</w>
coresp unz
v et
ide a</w>
ă mân
facil it
at ele</w>
simpl u</w>
w on</w>
aliz are</w>
serv ice</w>
arg um
obi ective</w>
es sion</w>
ar ată</w>
annu al</w>
m es
lo g
sp er</w>
E S
ques tions</w>
il legal</w>
sti t
obiec tiv</w>
enterpri ses</w>
in sist
Ir an</w>
achiev ed</w>
st o
di feren
vul ner
în cred
ot deauna</w>
ch et
presid ent</w>
Au stri
con sist
S o</w>
co st</w>
J ap
administ ra
c area</w>
ap pe
fi m</w>
empha si
L et</w>
l et</w>
Rom a</w>
1 ,
cun o
cheltu iel
Mon di
fiel d</w>
extern ă</w>
deciz ia</w>
al ia</w>
Pri mul</w>
reci pro
al t
reas ons</w>
m ine</w>
coe ziune</w>
as oci
i ties</w>
h ard</w>
con cep
&apos; t</w>
combat erea</w>
sp iri
ev olu
Re publica</w>
pia ţă</w>
reach ed</w>
li er</w>
pre ocup
impl ement</w>
fol o
cercet are</w>
avan ta
subi ect</w>
su fici
it ele</w>
c er</w>
sh or
pri orită
tr aining</w>
strateg ie</w>
re comm
cont extul</w>
si an</w>
ol o</w>
mode l</w>
al tor</w>
menţion at</w>
servic ii</w>
Belar us</w>
k ind</w>
streng then</w>
ab ă</w>
într- adevăr</w>
refer ă</w>
progre se</w>
V ic
veh ic
S e</w>
păr ţi</w>
exist ing</w>
an ţa</w>
Re present
ă turi</w>
consequ ences</w>
compromis e</w>
Bruxel les</w>
dra ft</w>
under stand</w>
u man</w>
m ic
pl ay
M ul
201 2</w>
procedu res</w>
fic ate</w>
desfăş ur
C or
consolid area</w>
întâm p
fel low</w>
bi ro
v ân
b ol
scur t</w>
def ence</w>
condi ţiile</w>
leg e</w>
e zi</w>
În să</w>
schimb ările</w>
ur ing</w>
de li
aleg eri</w>
Democr atic</w>
de şi</w>
înţel es</w>
are st
A ut
them selves</w>
s on
stand ing</w>
Nik ol
pri orities</w>
m er</w>
i ală</w>
requi red</w>
produs elor</w>
fap tului</w>
consider ă</w>
t on
i p
ag ed</w>
iz are</w>
it ăm</w>
deci de</w>
înt otdeauna</w>
al ţi</w>
proces ului</w>
commun ic
referen dum</w>
el op</w>
k ly</w>
ac qu
ac cid
rel aţiile</w>
C ul
dev elop</w>
establ ish</w>
inten ţion
S w
wor ks</w>
sur se</w>
si b
neg ative</w>
fon duri</w>
0 0
vot ing</w>
m ut
of f
anc ed</w>
spec ul
se e
addi tional</w>
tain ly</w>
rezolu ţie</w>
i mag
long er</w>
Trat atului</w>
L a
pres sure</w>
as ked</w>
applic ation</w>
pre ced
establish ed</w>
simil ar</w>
putern ic</w>
pun em</w>
1 5
do reşte</w>
uni ties</w>
cour t</w>
P l
ven it</w>
orig in
d am
bilater al</w>
vec in
M area</w>
îm i</w>
support ed</w>
mi ght</w>
câştig at</w>
qu ite</w>
for mul
centr al</w>
ig h</w>
er ie</w>
deci ded</w>
s- ar</w>
p ass
in ed</w>
alis m</w>
institu ţiile</w>
def ini
B ra
rec ently</w>
accept able</w>
w a
Ac ordul</w>
promov area</w>
contro l
su ficient</w>
Pre şedin
Chri sti
u ght</w>
bă n
is lav</w>
A r</w>
A p
ex erci
Ger many</w>
regi onale</w>
pri ces</w>
fir m</w>
f u
Re hn</w>
farm ers</w>
camp ai
opport unities</w>
alis ed</w>
Consili u</w>
energe tice</w>
sch o
grat ul
li ed</w>
intern et</w>
g eo
abo ve</w>
m ess
con si
h and
gra m</w>
S und
ver se</w>
val oare</w>
sal ari
con vin
a pl
cu re
innov ation</w>
în alt</w>
săptămân a</w>
aj ul</w>
pl eased</w>
efici entă</w>
ur se</w>
tr ue</w>
Sp er</w>
cri teri
R o
Organ iz
1 .
200 3</w>
fish er
constitu ie</w>
sârb i</w>
ac cel
A C
succes s</w>
de sigur</w>
Al l</w>
A gen
m s</w>
ugh out</w>
adop tion</w>
vis a</w>
it u
sub si
P op
proi ecte</w>
to p</w>
asigur ăm</w>
responsabil itatea</w>
put ut</w>
ajut orul</w>
so li
C z
si x</w>
aut om
acces ul</w>
em is
Sund ay</w>
lan gu
cooper ării</w>
Serb s</w>
p tă</w>
mun cii</w>
infrastructur e</w>
h en
re pres
ţion ale</w>
produ ce</w>
k ovski</w>
candi date</w>
O ur</w>
solic ită</w>
ra di
a di
Com un
th ens</w>
d or
ch arg
Ar tic
să- i</w>
st ed</w>
cir cul
ajun ge</w>
ac ks</w>
fron ti
şi -au</w>
servici ile</w>
inter pre
con gratul
adăug at</w>
regim e</w>
ch ed</w>
c are
A ș</w>
tic s</w>
wh ose</w>
st er
si une</w>
el ess</w>
O ri
M al
lucr uri</w>
fon durile</w>
step s</w>
Fin ally</w>
G az
de parte</w>
o il</w>
al -
proiect ul</w>
tur c</w>
solu ţie</w>
ke ep</w>
gu es</w>
corec t</w>
au di
E S</w>
z er
ben efic
ast e</w>
A cum</w>
cond amn
pi ed
c rea</w>
aj ung
b or
u ș
fam ily</w>
t able</w>
V u
3 1</w>
pri mar
pre vious</w>
A K
soci ation</w>
oper aţi
k il
el ement
discus s</w>
im ente</w>
cent re</w>
dific ul
cer tainly</w>
ac coun
inclu ded</w>
ş ase</w>
regul ations</w>
agri cul
ro w</w>
cetăț enilor</w>
actu al</w>
thro ughout</w>
at tem
i de</w>
en suring</w>
a th
Regul amentul</w>
ac olo</w>
Slov enia</w>
exp ect</w>
H igh</w>
ur ul</w>
ol er
sh are</w>
met o
S ud
m ir</w>
U k
ter ii</w>
contribu tion</w>
w an
no ul</w>
in ing</w>
car ried</w>
aff ected</w>
7 0</w>
Wh en</w>
s l
fem ei</w>
circum stan
in ning</w>
rel ated</w>
en h
st ing</w>
re ach</w>
Af ter</w>
s or
en a</w>
e v</w>
D j
lit tle</w>
extern al</w>
al est
c uro
C hi
i ţi</w>
mecan is
ic s</w>
amen inţ
I m
să i</w>
Sou th</w>
E ner
închei at</w>
săptămân i</w>
str ân
complet e</w>
ultim ele</w>
l -
effor t</w>
tribun al</w>
p il
quic kly</w>
for ţei</w>
char ge</w>
Uk ra
Portu g
A li
inter mediul</w>
dis pozi
realiz at</w>
pie ţei</w>
implement ed</w>
techn ical</w>
pre vă
commit ted</w>
iz i
1 2
a ţilor</w>
bo dy</w>
âng ă</w>
ener giei</w>
e y
Ital y</w>
vot ul</w>
sig n</w>
recomm end
înce pe</w>
rezul tat</w>
bro ught</w>
b as
ver sit
ti ous</w>
ridic at</w>
in fr
demon st
cau z
val ue</w>
every one</w>
legi tim
P T</w>
9 2</w>
săn ătate</w>
sco p</w>
traf fic
ap te</w>
N ational</w>
gra ve</w>
condi ţii</w>
ev ski</w>
democr atice</w>
altern ative</w>
acord uri</w>
pr um
contri buie</w>
v ac
tr on
aplic area</w>
s ha
i ului</w>
c at</w>
o z
pre hen
mat ters</w>
dra w</w>
Direc tive</w>
n ever</w>
eff ect</w>
drep turi</w>
b orders</w>
tea ptă</w>
UN MI
l um</w>
ve de</w>
un ica</w>
Wh ile</w>
pro gram</w>
lu ate</w>
pri oritate</w>
out side</w>
lev els</w>
explo at
Fr ance</w>
direc tiv
re turn</w>
of fer</w>
intern ă</w>
F ri
B us
ec tion</w>
E X</w>
un employment</w>
ri sc
rezul tate</w>
comp en
afirm ă</w>
of fice</w>
amo unt</w>
th an
rel ation</w>
p ati
ac ele</w>
UNMI K</w>
Moldov a</w>
si z
natur ale</w>
i -
îm păr
lan tic</w>
ing ly</w>
în țel
exist a</w>
part ners</w>
est ed</w>
dezvolt ării</w>
du min
ch ie
cal ls</w>
refu gi
pro pus</w>
gr u
M ă</w>
hap s</w>
l ent</w>
stabil itate</w>
nim ic</w>
ati va</w>
Cz ech</w>
îm pied
is la
ac oper
Bori s</w>
introdu ce</w>
li ber</w>
dev eni</w>
civ ile</w>
ţi al</w>
ultim ul</w>
Democr at</w>
ma kes</w>
Sr p
Econom ic</w>
hap pen
Parti dului</w>
Do resc</w>
recei ve</w>
e f</w>
cuv inte</w>
contrib ute</w>
pro vo
persoan ele</w>
chie f</w>
anu al</w>
in sul
ash ing
at h</w>
W ashing
O n
ar ăt
al most</w>
Represent ative</w>
adop t</w>
S econ
perman ent</w>
discu ţiile</w>
c ame</w>
m ean</w>
exec u
pă cate</w>
provi ding</w>
mondi al</w>
acord ului</w>
every thing</w>
cetăţ eni</w>
m ii</w>
ab ri
lea ding</w>
agrico le</w>
ş om
clos ed</w>
Isra el</w>
Cur tea</w>
we eks</w>
spea k</w>
no ile</w>
capac itatea</w>
N L</w>
Kost unica</w>
li ve</w>
ați onal</w>
ar că</w>
ap point
esenţi al</w>
maj or
bal ance</w>
w ing</w>
gra ph
buil d</w>
asist enţă</w>
Uni une</w>
A thens</w>
agri culture</w>
re ven
ori z
dec is</w>
ch eie</w>
bec om
medi um
Europ e
Bosni an</w>
respect area</w>
inter i
cl as
ide rea</w>
expres sed</w>
at ri
a- şi</w>
protec ţie</w>
ba sic</w>
întreprind erile</w>
no thing</w>
en able</w>
deb t</w>
Centr al</w>
rez er
res urse</w>
ra ised</w>
y a</w>
cop ii</w>
af ara</w>
sit ting</w>
ic ally</w>
equ al</w>
ade qu
accep t</w>
ar mon
mâ n</w>
fe el</w>
ex t
competitiv eness</w>
întreb are</w>
hu ge</w>
de ze</w>
p ace</w>
ov anovic</w>
m p
servici ilor</w>
pri ce</w>
lo t</w>
con nec
tre at
pi ața</w>
cre ating</w>
be h
at oare</w>
In di
viz it
re la
la ws</w>
kno wn</w>
Amer ic
pre p
stres s</w>
ra po
deoseb it</w>
German ia</w>
C ol
terro rism</w>
mechan ism</w>
sus ţine</w>
situ ația</w>
pre să</w>
monit oring</w>
long -term</w>
leg isla
l ist</w>
dial og
approv ed</w>
IC T
Democr ats</w>
A ten
tre bu
direc tivă</w>
U r
even iment
ap ply</w>
con serv
ti p</w>
ver i
el l
dou b
cun os
th us</w>
si unea</w>
dev ină</w>
dem and</w>
present ed</w>
creș tere</w>
buget ului</w>
mon et
l ater</w>
discus sion</w>
B C</w>
pu țin</w>
dumin ică</w>
îndo ială</w>
f al
crimin al</w>
F ur
pre par
op tim
ită ți</w>
mulțum esc</w>
exist at</w>
199 5</w>
tu res</w>
po por
sup ply</w>
bi o
N o</w>
on om
implement ing</w>
dezbat erea</w>
beh ind</w>
aten ţia</w>
îm prum
pow ers</w>
nucle are</w>
me th
ma xim
lea ve</w>
et ului</w>
discu ţii</w>
compet en
amb ele</w>
P I
20 0</w>
pu r</w>
ban ks</w>
provin ciei</w>
Al though</w>
tic al</w>
l ear
in deed</w>
as y
întâln it</w>
tran z
commit tee</w>
a head</w>
liber tă
M u
M er
Con stitu
Ban ca</w>
ați ile</w>
program ul</w>
capac ity</w>
n aționale</w>
Balcan i</w>
adv ant
Reg i
Intern et</w>
ac ces</w>
ta il
gru pu
200 2</w>
supliment are</w>
re ad</w>
nici odată</w>
C a</w>
l anda</w>
a der</w>
rul ing</w>
requ est</w>
discrimin ation</w>
reuş it</w>
b ăr
întreprind erilor</w>
ter men
t ack
str ug
fer ing</w>
cultur ă</w>
afl at</w>
S an
strengthen ing</w>
lip sa</w>
l ângă</w>
ş ed
men țion
industri a</w>
exist ente</w>
ma s</w>
S in
tea m</w>
h ome</w>
regi uni</w>
j e
inţ ei</w>
s ent
pri ot</w>
urg ent</w>
t ory</w>
sci enti
relev ant</w>
ev ent
encour age</w>
- mi</w>
solu tions</w>
s ou
n ame</w>
improv ing</w>
sp ort</w>
l ate</w>
ere ază</w>
S y
y s</w>
competi tive</w>
D ar</w>
gr up</w>
en or
M y</w>
introdu cerea</w>
e şte</w>
com plic
ICT Y</w>
Al liance</w>
n ation
discus sed</w>
copi ilor</w>
dom estic</w>
Srp ska</w>
s ent</w>
provi sions</w>
l et
F i
încred ere</w>
cor rec
Ital ia</w>
i rii</w>
mat erie</w>
bu get</w>
ex ac
tal king</w>
bi m</w>
Minist ru</w>
T un
ă tatea</w>
cor por
conc ili
Artic le</w>
ev ents</w>
Of fice</w>
F und
1 3
ai l</w>
fic a</w>
li k
st op</w>
cont in
amend ment</w>
vi ously</w>
treat ment</w>
inter z
ar ri
ar ity</w>
Ast fel</w>
M I</w>
standar dele</w>
elec tron
199 9</w>
ur s</w>
tre ilea</w>
fon durilor</w>
acela și</w>
k m</w>
sh all</w>
Washing ton</w>
Fri day</w>
D im
ach izi
ren t</w>
j an</w>
şti lor</w>
har mon
go ods</w>
acţi uni</w>
A ce
înţel eg
stat ul</w>
du ce</w>
evi den
numer oase</w>
K ur
asp ects</w>
emis sions</w>
com prehen
g n</w>
open ed</w>
on d</w>
1 8
semnific ativ</w>
pro sper
tion ing</w>
comp anii</w>
assess ment</w>
z il
tem por
reduc tion</w>
efici ente</w>
P ak
mess age</w>
form ă</w>
evalu are</w>
I rel
re pet
memb rii</w>
avo id</w>
pozi tiv</w>
obiectiv ul</w>
in ei</w>
al though</w>
Au gust</w>
ti le</w>
mun ca</w>
1 st</w>
ş an
politic ile</w>
Mar k
în de
si m</w>
co v
C O
dom in
Irel and</w>
regul ament</w>
maj ore</w>
B e
go al</w>
t op
s ite</w>
administr ation</w>
ei ther</w>
M it
mov ement</w>
minist ers</w>
ită țile</w>
pl as
L EX</w>
sf ul</w>
r ing</w>
d ang
priv inţă</w>
interes ul</w>
re dres
Ser vic
di min
produs ele</w>
Securi tate</w>
si st</w>
mand ate</w>
domn ule</w>
P E</w>
B 92</w>
viz ează</w>
punc te</w>
resurs elor</w>
expres s</w>
candi dat
aten ţie</w>
at orilor</w>
ut ely</w>
ef ficient</w>
declar aţie</w>
au z
ce m</w>
siz ed</w>
p an
isi a</w>
S im
re new
umanit arian</w>
de i</w>
col abor
w ater</w>
high er</w>
am ân
ear lier</w>
consi dered</w>
c it
m acro
eas ure</w>
aver tiz
sprijin i</w>
nou a</w>
co l</w>
actu ală</w>
si des</w>
ă t</w>
st age</w>
ac ts</w>
toc mai</w>
succes sful</w>
re d
200 1</w>
put ere</w>
h om
de- al</w>
A L
ot s</w>
negoci eri</w>
fă cute</w>
bul g
Justi ce</w>
a uc
ându- se</w>
rel ating</w>
profe sion
hist ory</w>
pre vede</w>
au g
Can ada</w>
it ors</w>
conv ing
Serbia- Montenegro</w>
S untem</w>
solidar itate</w>
ofici al</w>
l unii</w>
initi atives</w>
Hung arian</w>
sect ors</w>
adop tate</w>
U cra
und ă</w>
pri m</w>
imedi at</w>
dur abilă</w>
at r
m us
S ome</w>
K FOR</w>
traffic king</w>
implement area</w>
au gust</w>
IM F</w>
EU LEX</w>
ti t
pl ani
a way</w>
Com p
reg ards</w>
ran ean</w>
i ască</w>
en ded</w>
compl e
Ger man</w>
organ isation</w>
abil itatea</w>
V ot
Skop ie</w>
D is
tal k</w>
inclu des</w>
er ing</w>
Macedon iei</w>
i ul</w>
P ac
Mediter ranean</w>
el alte</w>
în cre
M us
M -
ag ing</w>
actu ale</w>
pat ri
benef its</w>
prot est
pen si
eff ects</w>
dat elor</w>
ambi tious</w>
alest ini
C am
ri d
vol unt
fr an
z ece</w>
juri dic</w>
in -
com promis</w>
part nership</w>
F il
fac ing</w>
excel lent</w>
t ori
solicit at</w>
pos sibility</w>
s ac
ri st</w>
institu ţii</w>
cre ated</w>
ur gen
li ves</w>
sen se</w>
politici ans</w>
confid ence</w>
Europ ă</w>
ro l
organiz ate</w>
of ere</w>
er ului</w>
enti re</w>
Geor gia</w>
support ing</w>
ministr y</w>
ap el</w>
an ces</w>
H ag
F eder
Bulg ari
parteneri at</w>
bil itatea</w>
H uman</w>
st re
pac i
ov a</w>
on es</w>
p aid</w>
con st
F re
cres cut</w>
at ra
Fon dul</w>
B as
olog ical</w>
Bel grad
at ur
cau ză</w>
asy lum</w>
Sar ai
P A
F MI</w>
medium -
glob ală</w>
fe red</w>
H ar
9 0</w>
consum er</w>
Karad zic</w>
intenţion ează</w>
w ants</w>
ose vic</w>
re alis
ţi onal</w>
si rea</w>
provi des</w>
l u</w>
în cet
ent ry</w>
Sarai evo</w>
la w
c ab
G i
compen s
Ukra ine</w>
open ing</w>
interes ele</w>
EU -
b ed</w>
N ow</w>
shor t
sh ort</w>
Ener g
urm ări
it elor</w>
comer ţ
re b
E ast</w>
suf ficient</w>
experi ence</w>
cro at</w>
an ţă</w>
sh own</w>
it are</w>
promot ing</w>
en ge</w>
strateg ia</w>
ob ţine</w>
dr um
solu ţii</w>
oam enilor</w>
de ath</w>
v ari
transparen t</w>
f -
al ităţii</w>
ș edin
posibil ă</w>
con şti
cere mon
aș a</w>
sus țin
pro secut
con t</w>
P K
Austri a</w>
w aste</w>
mijlo cii</w>
putern ică</w>
el ement</w>
n ei</w>
rezultat ele</w>
instrum ente</w>
wled ge</w>
st atis
deciz ii</w>
AK P</w>
ven it
u d</w>
investi ţii</w>
medium- sized</w>
importan ţa</w>
campai gn</w>
larg ement</w>
a- i</w>
Tri bun
tri m
re structur
si onal</w>
ref ug
regi onală</w>
Mil osevic</w>
wi de</w>
n ation</w>
finan ce</w>
develop ed</w>
an tă</w>
G 20</w>
îmbunătăţi rea</w>
h umanitarian</w>
aş teaptă</w>
angaj amentul</w>
adecv ate</w>
Aten a</w>
lik ely</w>
im poz
g y
r ating</w>
n i</w>
it ation</w>
b it
aprob at</w>
Rus sian</w>
organiz at</w>
tre n
ori al</w>
ofer it</w>
S e
complet ely</w>
beg in</w>
asigur area</w>
V est</w>
al loc
A ş
dificul tă
h ou
anti cip
naţi onal</w>
me an
ar s</w>
dre ap
ther more</w>
m ic</w>
k i</w>
fam il
bu cur
To day</w>
in ess</w>
chall enge</w>
R es
Fin an
vin eri</w>
f und</w>
ol s</w>
gro und</w>
Pe ople</w>
tou rism</w>
t em</w>
plac ed</w>
direc tion</w>
în cep
industri al</w>
ăt orilor</w>
et a</w>
înce arcă</w>
p tion</w>
nat ure</w>
jo urn
direc tor</w>
cetăț enii</w>
beg inning</w>
A n</w>
ă di
reglement are</w>
aj ului</w>
cros s-
car bon</w>
diplom atic</w>
N aţi
rezultat ul</w>
prep ared</w>
vic e
defic it</w>
th ous
stit ute</w>
spo k
mic ro
garan ta</w>
ta ţi</w>
g en</w>
di vi
com ent
autorită ţilor</w>
tr ying</w>
c ine</w>
stabil itatea</w>
min ority</w>
absol utely</w>
întreprind eri</w>
heal th
cu st
budget ary</w>
v ech
mit ted</w>
T A</w>
IM M-
religi ous</w>
ex ce
Con t
s ession</w>
al leg
Amer ica</w>
ati tu
a ve</w>
num ără</w>
hist ori
se ems</w>
econom ies</w>
desp ite</w>
cau sed</w>
Z oran</w>
sal ut
fron tali
reco very</w>
cap ăt</w>
Dec lar
B BC</w>
întâmpl ă</w>
cl ară</w>
standar de</w>
invest ments</w>
cel elalte</w>
um ane</w>
ac cord
resurs ele</w>
i ans</w>
Ne ws</w>
L eg
wan ted</w>
schimb ărilor</w>
di g
viz elor</w>
sti tut
re zi
neces ită</w>
lu ăm</w>
ap ă</w>
O f</w>
terori sm
re ală</w>
eg u
P s</w>
perspec tive</w>
căro ra</w>
Tot uși</w>
teritori ul</w>
d nei</w>
cal ling</w>
PK K</w>
g ed</w>
particip ation</w>
lucră torilor</w>
effectiv ely</w>
E ur
ț ară</w>
tu ri
tot uşi</w>
hotăr â
c am
P u
C e
l ac
ju de
Reprezent ant</w>
M edi
ver si
tak es</w>
îmbunătă ți
sect orului</w>
prezint e</w>
or row</w>
G o
fish ing</w>
men tion</w>
coordin ation</w>
bil ă</w>
O fici
form a</w>
ex act</w>
condu s</w>
a ari</w>
trav el</w>
of fic
for ced</w>
car acter
aut onom
ace eaşi</w>
dest ul</w>
S h
eli ber
Ac tion</w>
sum mit
felic it</w>
agen cies</w>
ag ency</w>
zon ele</w>
stabil it</w>
căre ia</w>
progres ul</w>
fail ed</w>
H aga</w>
politic ilor</w>
inst ead</w>
ex change</w>
200 0</w>
larg est</w>
establish ing</w>
d ings</w>
stand ard</w>
p ag
civ il
Nikol a</w>
ț elor</w>
rur al</w>
min orities</w>
sec ret
ri d</w>
c ale</w>
Ah tis
pescu itului</w>
ec i</w>
tis h</w>
seam a</w>
glob ale</w>
prac tică</w>
categ ori
grup ul</w>
băr b
ma rea</w>
li gh
cent rul</w>
E L</w>
ri se</w>
sp ect
principi ul</w>
exper ts</w>
ev it
con cent
re j
per haps</w>
lucr urile</w>
exist e</w>
ere le</w>
echili b
creș terea</w>
rit ten</w>
M ic
D uring</w>
F ren
r un</w>
lid erii</w>
v it
refl ect
saf egu
congratul ate</w>
stat ements</w>
milit are</w>
jum ătate</w>
cuvân t</w>
aleg erilor</w>
Ahtis aari</w>
tain ed</w>
or al</w>
cl ădi
are st</w>
am bl
st oc
our selves</w>
institu tional</w>
ali ties</w>
ac cu
deput aţi</w>
afect ează</w>
siguran ță</w>
j urn
est ul</w>
N A</w>
des ea</w>
Cent re</w>
m ot
Ch am
recuno aş
fin ally</w>
dic tat
collea gues</w>
t an
sal ut</w>
grup uri</w>
I tali
rit an
ar ilor</w>
legisl aţia</w>
ș ti</w>
func țion
cl are</w>
in cen
speci fic
answ er</w>
al ing</w>
intere s</w>
trans frontali
it i</w>
Vo j
buget are</w>
adecv at</w>
repres ents</w>
re ality</w>
ag en</w>
C E
zon ă</w>
sal v
fisc al</w>
a eri
Fur thermore</w>
reduc ere</w>
pass eng
minim um</w>
g az
am int
al tele</w>
În al
app lied</w>
over all</w>
for ței</w>
adequ ate</w>
ex am
pach et</w>
f eder
M any</w>
ș e
to ţii</w>
ref er</w>
in ța</w>
drep tate</w>
discut at</w>
Secon dly</w>
un ică</w>
particip at</w>
cultur ale</w>
show s</w>
requi res</w>
prezent a</w>
C l
direc tly</w>
am nă</w>
Hag ue</w>
r un
Av ând</w>
ide ea</w>
echili br
f lo
de tali
d i</w>
V arious</w>
via ţă</w>
pl ăt
E ast
t end
loo king</w>
Fren ch</w>
z ute</w>
parlament are</w>
m -
econom ie</w>
aut o
sib ilities</w>
S um
li st
Al so</w>
spe ech</w>
da ily</w>
princip alele</w>
beli ev
To ate</w>
comprehen sive</w>
communic ation</w>
- ul</w>
organiz ată</w>
in de</w>
h er
gi ving</w>
abord area</w>
our able</w>
de dic
t ask</w>
et e</w>
H o
mari time</w>
con dem
gr abă</w>
fin aliz
op s</w>
Bri tish</w>
forma rea</w>
Ş i</w>
tom orrow</w>
re le</w>
implic ate</w>
Re z
j ic</w>
C e</w>
docu ments</w>
commun ities</w>
D rep
săn ătă
in es</w>
ig n
ga ze</w>
cul p
ab and
r ă</w>
indi feren
i p</w>
coali tion</w>
un ded</w>
a x
sprij ină</w>
p aş
ater al</w>
leg ii</w>
b ritan
accel er
ab solu
ov ere
comb at</w>
lum ii</w>
be y
as a</w>
a desea</w>
shi ps</w>
Ir landa</w>
fi gh
com bin
Hung ary</w>
par ts</w>
is es</w>
structur ale</w>
adop tată</w>
Gre ciei</w>
G DP</w>
ma r</w>
fisher ies</w>
feme ile</w>
experi en
langu age</w>
19 8
ămân t</w>
te ze</w>
jurid ice</w>
ur y</w>
pers on</w>
US D</w>
ordin ea</w>
fac tor</w>
permit ă</w>
dialo g</w>
Isl am
con sen
1 6
is ms</w>
f rag
d on</w>
vor bim</w>
report ed</w>
pre fer
maj oritate</w>
f abri
sprij ini
rezolu ție</w>
happ en</w>
condu ce</w>
bi gg
nam ely</w>
m easure</w>
Indi a</w>
t oler
sour ce</w>
ra ise</w>
ament elor</w>
înregistr at</w>
provoc ări</w>
o ro
desch is</w>
recogn ise</w>
integr are</w>
ed a</w>
sără ciei</w>
r ang
pl en
învă ţ
întreb ări</w>
următo arele</w>
improv ed</w>
S ea</w>
institu ţiilor</w>
cab in
w it
vic a</w>
7 th</w>
tran si
techn ology</w>
erci al</w>
Isra el
datori tă</w>
azi l</w>
maint ain</w>
discus sions</w>
acel a</w>
S ing
M ore
g ni
priv ati
pas ag
absolu t</w>
s overe
public aţiei</w>
pro per</w>
Tra de</w>
form s</w>
commit ments</w>
re iter
p el
con sili
ro mân
ori le</w>
lo st</w>
fil m</w>
G ru
ul ar</w>
le- am</w>
grup ului</w>
Bu ch
su ver
re sid
guvern ament
d are</w>
plan ul</w>
energ ia</w>
de tail
T i
Inv esti
Geor ge</w>
thre at</w>
re -
migr ants</w>
ex tr
bilater ale</w>
H U</w>
reduc ing</w>
di fici
regi unile</w>
aşte p
S ME
s av
grow ing</w>
difici l</w>
cal itatea</w>
bi g</w>
statut ul</w>
sel f-
prim i</w>
deleg ation</w>
bey ond</w>
re present</w>
pri et
equ ality</w>
ar ului</w>
an teri
obţin ut</w>
ho od</w>
n ations</w>
c li
Copenh agen</w>
adres a</w>
Christi an</w>
Re public
star ted</w>
m ur
influ ence</w>
SME s</w>
contrib ut
hear d</w>
famili es</w>
3 5</w>
v ice</w>
fisc ale</w>
c al</w>
East ern</w>
reform e</w>
Copenh aga</w>
stabil ite</w>
înt ârzi
targ ets</w>
f estival</w>
Cro aţiei</w>
pur su
fic ată</w>
adop te</w>
Intern aţional</w>
mâ ine</w>
ex port</w>
in accept
vâr stă</w>
per f
i ile</w>
af f</w>
sar c
măsu rilor</w>
căro r</w>
rel aţiilor</w>
de grabă</w>
allow ed</w>
Aut orită
t -
securi tăţii</w>
Buch arest</w>
Af gh
An g
suc ce
ţin ut</w>
tel evi
p un</w>
căr uia</w>
St abil
inf l
an ţii</w>
aliment are</w>
Ira q</w>
popul aţiei</w>
înc ân
dov adă</w>
asp ectele</w>
Pro tec
3 00</w>
rel ation
e g</w>
Bel gi
ugosla via</w>
problem elor</w>
i u</w>
car ry</w>
N G
clos ely</w>
c ause</w>
D PA</w>
fran ce
re tur
quot ed</w>
oc ra
tot ul</w>
s fer
im e</w>
că ut
atis ation</w>
H as
Dez vol
elimin area</w>
el ected</w>
statut ului</w>
an ov</w>
tic a</w>
gre at
2 5
than ks</w>
t est</w>
e ing</w>
satis fac
propun erile</w>
presid ency</w>
cel e
Tun isia</w>
via ţa</w>
s cr
difficul ties</w>
di versity</w>
activ ity</w>
Part nership</w>
n s</w>
Con form</w>
sec u
ren ica</w>
coleg ii</w>
an ish</w>
E -
w ise</w>
contro lul</w>
proper ty</w>
disput e</w>
Bulgari ei</w>
l ăs
conclu sion</w>
În tre</w>
it em</w>
M aj
un acceptable</w>
R ule</w>
struc tures</w>
mar g
As sociation</w>
pres ei</w>
combat ing</w>
c ali
b om
Ucra ina</w>
sc and
reco gni
inten ded</w>
ban k</w>
M an
înch is
impl ică</w>
ar ing</w>
rat es</w>
pl au
ni k</w>
preşedint elui</w>
le -a</w>
finanţ are</w>
ex tra
y ed</w>
im migration</w>
er au</w>
Român iei</w>
Europe ans</w>
2 ,
supraveg h
fav or
man u
acţi unile</w>
di u</w>
căr ui</w>
stabili rea</w>
establish ment</w>
J ovanovic</w>
fost ul</w>
att acks</w>
D u
t ation</w>
stric t</w>
as cul
R O</w>
pro to
pro pune</w>
po st</w>
ologi es</w>
l ea</w>
ever th
b ac
N ic
CO 2</w>
everth eless</w>
ro und</w>
rapi dă</w>
ptă m</w>
fr u
ăt orul</w>
â m
t ei</w>
realiz a</w>
raport or</w>
cross- border</w>
motiv ul</w>
dific ilă</w>
ac tiv</w>
nevo ia</w>
larg ă</w>
ban ii</w>
N e</w>
să- l</w>
po or</w>
comple x</w>
închei erea</w>
prof it</w>
independ enţa</w>
de puse</w>
s ine</w>
mar k</w>
Ol y
uti l
pre sup
S reb
oblig ations</w>
ep ing</w>
ack no
an terior</w>
Energ y</w>
vot a</w>
v rea</w>
sus ţin</w>
om olog
gre u</w>
ar ch
luc rează</w>
cultur a</w>
H a
program e</w>
pen al
discut a</w>
clos er</w>
San ader</w>
en jo
T om
Sin ce</w>
pre zi
ma gh
discut ăm</w>
vi r
ocup area</w>
lup tă</w>
drep tului</w>
Sal ut</w>
An d</w>
v ement</w>
n ear</w>
cuvân tul</w>
comm ercial</w>
Extern e</w>
structur al</w>
responsabil itate</w>
mecan ism</w>
arăt at</w>
S ă</w>
strong ly</w>
peric ol</w>
cu r</w>
au ster
an ţi</w>
H ow</w>
re vi
mul tor</w>
dori t</w>
bud s
propri ile</w>
fail ure</w>
împăr tă
supraveg here</w>
provin ce</w>
macedon ean</w>
de z</w>
connec tion</w>
laun ched</w>
subsi di
discu ţiilor</w>
comun itatea</w>
Ra di
Dem ocra
ro c
ar ter</w>
Bu cure
orig in</w>
liber tate</w>
equ ip
re alitate</w>
acor de</w>
invol vement</w>
e ti
boo st</w>
Pak istan</w>
Di verse</w>
pe dep
indiferen t</w>
em or
prote ja</w>
pl ed
p on
gesti une</w>
critic al</w>
reform ele</w>
ju dg
importan ţă</w>
gă si</w>
More over</w>
pl ant</w>
guvern an
a p</w>
I g
continu es</w>
em a</w>
depă ş
Th ank</w>
Sreb renica</w>
ă b
thous ands</w>
produc ers</w>
o poziţie</w>
disast er</w>
becom ing</w>
afect ate</w>
T ay
poten ţi
at tr
l ay</w>
ig nor
tr ust</w>
t est
pos es</w>
fo und
ef ect</w>
al th</w>
vă zut</w>
su rile</w>
reas că</w>
principi ile</w>
No i</w>
v al</w>
respec tive</w>
ar mat
D rag
pier du
introduc tion</w>
achiev ing</w>
not ed</w>
tab led</w>
respon d</w>
ofici alii</w>
proiect ului</w>
lat est</w>
im ent</w>
gân di
cost urile</w>
constitu tion</w>
acți une</w>
N ord</w>
vi e</w>
s il
T V</w>
urm ă
pie ței</w>
bun ă
în locu
nucle ară</w>
not e</w>
ent er</w>
scă zut</w>
practic es</w>
orig ine</w>
14 9</w>
regi st
as soci
At lantic</w>
domn ul</w>
a si
accord ance</w>
B rit
pi on
net work</w>
V om</w>
ori t
ore ază</w>
ocaz ia</w>
comerci al</w>
Soci alist</w>
sp aţi
re concili
pozi tive</w>
D el
Ace ştia</w>
scienti fic</w>
recogni tion</w>
mechan isms</w>
B ud
nor thern</w>
gre c</w>
a preci
informa ții</w>
To t</w>
reg ener
ref uz
Conven tion</w>
trafic ului</w>
su g
pierdu t</w>
compl ex
ne -am</w>
increas ingly</w>
comunit ar</w>
ast ro
Pro bl
ţi uni</w>
utiliz ate</w>
pescu it</w>
conclu z
ch ance</w>
ş tri
d ine</w>
Un garia</w>
prin tr-o</w>
m ăr
limit ed</w>
is ely</w>
tran zi
sfârş it</w>
leg ea</w>
e e</w>
ac cent
S A
ul os</w>
oblig atori
jude că
immedi ately</w>
M os
întâmpl at</w>
up on</w>
on line</w>
w r
un anim
th u
t ârzi
sub mitted</w>
an -
B ăn
B E
trans m
săptămân ă</w>
prof it
n or</w>
ea u</w>
post -
pat h</w>
p le</w>
naţi onală</w>
intern aționale</w>
O p
semnific ative</w>
Pre mi
O bi
C u
întreb area</w>
realiz area</w>
g ă</w>
un it</w>
respec te</w>
po v
ech it
e ş
Strateg y</w>
ou th</w>
f all</w>
end or
chesti unea</w>
Regul ation</w>
P en
ăt ori
desc oper
comp on
O m
As s
băn c
spiri t</w>
pati ents</w>
elabor at</w>
dep inde</w>
t elec
civ ili
vă d</w>
s cu
terorism ului</w>
Oly mp
ţion ală</w>
parti d</w>
esenți al</w>
ch ec
A soci
âng a</w>
stud y</w>
so -
propun erii</w>
m ente</w>
gener ale</w>
follow ed</w>
d aţi</w>
P on
tre aty</w>
p ic
ați onală</w>
ad or</w>
sin gur</w>
ci e</w>
Su d</w>
C er
tri al</w>
recommend ations</w>
căre i</w>
Un fortunately</w>
inst al
extra ordin
Gaz a</w>
ş eful</w>
urg ed</w>
sufici ente</w>
sec ure</w>
e ți</w>
de ază</w>
b ut
part ner</w>
judici al</w>
impac tul</w>
el ling</w>
R at
C el</w>
territ ory</w>
d an</w>
circumstan ces</w>
G lob
transpor tul</w>
Mun tenegr
G ul</w>
De put
to wn</w>
ti t</w>
prev ent
op t</w>
multi l
trebu it</w>
re in
e ză</w>
D in
D esp
emphasi se</w>
are lor</w>
Muntenegr ului</w>
F E
tel l</w>
pro puse</w>
poli ţie</w>
lid erul</w>
integr ated</w>
vie ws</w>
figh ting</w>
en ței</w>
ast a</w>
Ha iti</w>
sc ale</w>
major ă</w>
intr area</w>
Sp ain</w>
s end</w>
dr am
Preşedin ţia</w>
ș tri</w>
compani ile</w>
al ături</w>
stabil i</w>
requi re</w>
reg ret</w>
pre ved
lans at</w>
Th aci</w>
L T</w>
Fran ţa</w>
vot es</w>
recogn ised</w>
priv itoare</w>
employ ed</w>
târzi u</w>
te es</w>
Tay y
7 5</w>
oper ate</w>
develop ments</w>
construc tive</w>
respec tiv</w>
ing ing</w>
conven it</w>
al one</w>
norm al</w>
al ilor</w>
T el
reform ă</w>
parlament ului</w>
fol low</w>
de si
gestion area</w>
dezbat eri</w>
bro ad
situ aţiei</w>
posi tions</w>
plan ned</w>
diver se</w>
dam age</w>
Tayy ip</w>
to ți</w>
ri gh
proce durile</w>
aliment ară</w>
ter ţe</w>
Rec ep</w>
Geor gi
sublini ază</w>
su me</w>
schimb are</w>
om en
ir i</w>
el a</w>
L on
2 .
dist in
i ra
consolid a</w>
s ev
protej area</w>
fi gu
cre şte</w>
Gru evski</w>
u res</w>
s un
etn ice</w>
chang ed</w>
w at
scop e</w>
reg ret
poli ţiei</w>
an n
an ali
gen u
datori a</w>
întâ i</w>
încre derea</w>
ord ului</w>
si vă</w>
din ea</w>
Nor th</w>
L e
împrum ut
progre s</w>
introduc ed</w>
go als</w>
cere rea</w>
Am end
Alban iei</w>
pro -
particip area</w>
ex emp
auth ority</w>
V la
P ână</w>
E gy
j ana</w>
gra vă</w>
Prin tre</w>
ere ze</w>
Ci pr
vo ic
pers ons</w>
corup ţiei</w>
S E</w>
obiectiv elor</w>
Dim it
kosov ari</w>
energe tic</w>
dis charge</w>
Ast ăzi</w>
sch em
ap ă
t l
scho ol</w>
de bat
aș te
acor durile</w>
Mark et</w>
set ting</w>
de ad
cov ered</w>
corespunz ător</w>
trans fer</w>
ridic ate</w>
exerci ţi
Cy priot</w>
star ting</w>
Fir stly</w>
j unc
doub t</w>
d ut
st ak
ar rest</w>
ţi une</w>
reduc ed</w>
low er</w>
corec tă</w>
manu fac
imi gra
bil itate</w>
p rag
d ă
Ur mă
în to
ultim a</w>
om in
mat ern
activ itate</w>
uni on</w>
pl at
n ordul</w>
ari f
seri ously</w>
s en</w>
n av
cat astro
b ra
tră iesc</w>
răspun de</w>
parti dului</w>
so- called</w>
Fon dului</w>
D A</w>
techn ologies</w>
sâr be</w>
bin e
aliz ate</w>
A sia</w>
susp end
separ ate</w>
păre rea</w>
Lib ya</w>
respons abil</w>
provi sion</w>
oper ations</w>
fer ici
an tly</w>
re ale</w>
ol ului</w>
nor me</w>
high est</w>
du s</w>
beg an</w>
b loc</w>
in culp
S tu
Iv o</w>
tw o-
sar cin
cuprin z
concep t</w>
americ an</w>
ris ks</w>
Ad ri
sup p
produc t</w>
din tr-o</w>
6 -
refug ees</w>
i au</w>
emb ly</w>
Cham ber</w>
wor th</w>
rămân ă</w>
gen oci
bo dies</w>
resol ved</w>
mes aj</w>
inv est</w>
domeni ile</w>
finanţ area</w>
Y ugoslavia</w>
si er</w>
ser ies</w>
it orii</w>
ce şti</w>
G ol
investig ation</w>
go es</w>
bal can
tiv es</w>
targ et</w>
ofici ali</w>
ocaz ie</w>
econom ii</w>
Ser vice</w>
reform elor</w>
bigg est</w>
Str as
vic time</w>
tu ris
solic it</w>
m ică</w>
institu tion</w>
iniţi ativă</w>
apl ică</w>
Obi ectiv
E m
înaint ea</w>
simp le</w>
charg es</w>
b ân
Om buds
F T</w>
lin ked</w>
legisl ativ</w>
in come</w>
constitu tional</w>
V al
Balcan ii</w>
ri n</w>
reform a</w>
b on
siguran ţa</w>
păre re</w>
manag ed</w>
li ons</w>
ați ilor</w>
Strateg ia</w>
vizi on
politic s</w>
ne arly</w>
gă z
Sp anish</w>
pă str
it ori</w>
ad us</w>
stat ed</w>
se ek</w>
resol ve</w>
proced ura</w>
cre at</w>
a fir
un il
prec isely</w>
baz ează</w>
at orul</w>
şe f</w>
mod ern</w>
g l
societ ate</w>
o vi
ext ent</w>
Program me</w>
situ ație</w>
sing ura</w>
qu e</w>
preci z
Desp ite</w>
Ş ti
si uni</w>
h a</w>
Republic ii</w>
re mov
democr atică</w>
co ver</w>
chil d</w>
b lo
vorb it</w>
par ag
demonstr at</w>
res er
f lu
an u</w>
F estival</w>
norm ele</w>
im b
Rat ko</w>
t ării</w>
mus ul
eli gi
confrun tăm</w>
Chi ar</w>
seri os</w>
problem ei</w>
zi unea</w>
preşedin ţia</w>
resp ing
imi gran
Fir st</w>
sprij ine</w>
do c
S tre
societ atea</w>
mut ual</w>
mand at</w>
ie şte</w>
d nă</w>
c ally</w>
tur al</w>
in aug
hel ping</w>
conclu zi
alban ez</w>
De sigur</w>
read ing</w>
m u
inform are</w>
cont act</w>
comun ităţii</w>
H e
ti l
protec ție</w>
h y
aver age</w>
sp ani
paci en
med ical</w>
man ner</w>
ma in
monitori z
abil i</w>
G en
confer inţă</w>
col ect
ar rest
M id
popul aţia</w>
it ali
eur s</w>
aliz ării</w>
R el
Ig or</w>
D av
ugos lav</w>
spea ker</w>
ish a</w>
immedi ate</w>
cri ze</w>
Alban ians</w>
si v
am pl
us es</w>
ti di
do bân
copi ii</w>
b ack
Y or
v am
putern ice</w>
par lament</w>
f ot
ex prim</w>
sp ent</w>
high ly</w>
depend ent</w>
0 -
ve ţi</w>
acord a</w>
Ag ri
no ștri</w>
gener ală</w>
încăl c
ve dem</w>
stres sed</w>
parti de</w>
S lo
issu ed</w>
extin derea</w>
Serbia- Muntenegru</w>
gi ves</w>
Itali an</w>
In ter
E st</w>
schimb ări</w>
am an
ris h</w>
proper ly</w>
guvern ele</w>
Bucure şti</w>
prezent ate</w>
particip ate</w>
la h</w>
de pus</w>
ţi ale</w>
sur s
counter part</w>
con ver
adecv ată</w>
tu al</w>
re i</w>
pă cii</w>
inaug ur
elabor area</w>
diver sit
st able</w>
scri se</w>
lu area</w>
in ea</w>
disponi bile</w>
dem ands</w>
ME Ps</w>
specific ally</w>
sp ending</w>
saf e</w>
oraş ul</w>
medic ale</w>
fe at
st op
Un it</w>
Secret ary</w>
promov a</w>
im pune</w>
figu res</w>
at -o</w>
am es</w>
afl ate</w>
preşedin ţiei</w>
eti chet
const ant</w>
st ra
ne -a</w>
differen ces</w>
di viz
declar ation</w>
d ership</w>
criteri ile</w>
amp ;</w>
Pol ic
F at
C um</w>
C ei</w>
& amp;</w>
respect ă</w>
r ac
bal anced</w>
Băn cii</w>
tur ci</w>
ră mas</w>
apăr ării</w>
Sol ana</w>
Pro ces
L ast</w>
rapport eurs</w>
mer ită</w>
evid ence</w>
P res
relation ship</w>
plan ning</w>
I ugosla
tribun alul</w>
rec ord</w>
out come</w>
zon ei</w>
tr ad
presup une</w>
i ght</w>
br inging</w>
acord ă</w>
Un der</w>
Afgh an
A ud
represent ative</w>
qu ali
angaj ament</w>
ş col
stră ine</w>
societă ţii</w>
sistem ele</w>
protec ția</w>
kno wledge</w>
desc ăr
L at
pur pose</w>
li v
k ur
ă l
corespunz ătoare</w>
amb as
Ob ama</w>
strateg iei</w>
re member</w>
func tioning</w>
cust oms</w>
civ ilă</w>
Pol and</w>
v ine</w>
st aff</w>
s even</w>
legisl aţiei</w>
d erii</w>
b all</w>
perspec tiva</w>
liber alisation</w>
lea dership</w>
improv ement</w>
facil itate</w>
contr act</w>
M ir
tehn ice</w>
sur pri
sanc tions</w>
direc te</w>
S itu
territ orial</w>
pro curo
prim- ministrul</w>
practic i</w>
par cursul</w>
o pozi
bi d</w>
bar ri
avanta j
- lea</w>
produ s</w>
func ţie</w>
M ore</w>
I ni
Finan ci
D ef
Ber isha</w>
ofici ală</w>
ju st
high -
f all
al imente</w>
S ti
viz ită</w>
tex tile</w>
st ance</w>
main ly</w>
dra f
bour g</w>
ari es</w>
Pon te</w>
leg i</w>
leg ată</w>
an ţei</w>
W i
Pre ședint
Centr ală</w>
Afghan istan</w>
ro g
evalu area</w>
al o
Polic y</w>
perm is</w>
parti dele</w>
ori ca</w>
ex pen
de l</w>
Radi o</w>
happen ed</w>
ent ului</w>
ent elor</w>
continu ed</w>
on going</w>
ent a</w>
ci pl
ambi ţi
S K</w>
un fortunately</w>
prim ele</w>
în drep
l ess
finanț are</w>
S O
A T</w>
re n</w>
d os
c itat</w>
el ements</w>
al ine
Sp eci
B ro
ţin ă</w>
vre me</w>
Slo bo
P a
wel l-
sc en
dov edi
bur den</w>
tot odată</w>
terro rist</w>
super vision</w>
pre su
min ute</w>
memb ră</w>
ed ing</w>
c ement</w>
P lan
F ron
wr ong</w>
r d</w>
program ului</w>
integr ării</w>
in țele</w>
approv al</w>
Com is
desfă ș
cele br
D es
standar delor</w>
form e</w>
fer m</w>
de ţine</w>
ci pri
a ur
Yor k</w>
and ing</w>
industri ei</w>
ev ita</w>
Voj islav</w>
sfâr ș
is tic</w>
S toc
Cur ţii</w>
wh om</w>
und s</w>
li min
Ministr y</w>
i eri</w>
ap er</w>
Vic e-
prot ecting</w>
propri a</w>
d ul
S atur
A l</w>
ţi va</w>
un ice</w>
principi u</w>
in stan
anum itor</w>
S i
ta ins</w>
st ânga</w>
li der</w>
susţin ut</w>
o po
n an</w>
Dez bat
uri i</w>
l au
expres sion</w>
I rish</w>
ut ul</w>
st area</w>
s h</w>
re uș
Direc tiva</w>
şti m</w>
u ităm</w>
k ic</w>
comp ati
bu re
Ce ea</w>
C r
dis cipl
conclu sions</w>
compani ilor</w>
a şte</w>
pas sed</w>
ere lor</w>
de aling</w>
consider at</w>
cal cul
U l
Stras bourg</w>
spor ts</w>
dut y</w>
amend amente</w>
R ă
Inv est
sistem elor</w>
premi erul</w>
mondi ală</w>
gă s
fac ed</w>
Belgrad ul</w>
speci ale</w>
et ri
esenţi ală</w>
dec i</w>
Sp ania</w>
tur ă</w>
ti n</w>
gre ş
consen sus</w>
con iz
încerc at</w>
încep ând</w>
regi unii</w>
pun ere</w>
parti dul</w>
t arif
par ten
ov an</w>
negoti ating</w>
Z i
Satur day</w>
P i
B l
sing ură</w>
rup t</w>
proced uri</w>
numer ous</w>
demonst rează</w>
centr ale</w>
alban ezi</w>
aband on
pre ț
îmbunătă ţi</w>
val orile</w>
port s</w>
mani f
g rec
for um</w>
fo res
att ack</w>
pet rol</w>
leg ally</w>
ferici re</w>
conflic ts</w>
Pro i
Af gan
jurid ică</w>
ju dec
dialog ul</w>
E st
tin erilor</w>
pre sus</w>
o d
minorită ţilor</w>
integ ri
ex ist</w>
de ten
an tul</w>
publ ished</w>
pay ments</w>
l ă
guarante es</w>
S to
R am
support s</w>
h it</w>
strateg ii</w>
răspun sul</w>
recunos cut</w>
ei ght</w>
ad ding</w>
S I
D ra
practic al</w>
passeng ers</w>
in ț
electri city</w>
confirm ed</w>
ch es</w>
G ot
see king</w>
c y
as king</w>
structur e</w>
justi ţiei</w>
conclu de</w>
rej ected</w>
over come</w>
in țe</w>
gu ide
cum păr
ro g</w>
ke eping</w>
C amer
Bus iness</w>
Am b
săn ătatea</w>
preced ent</w>
dez astr
consumat orii</w>
ri sts</w>
laun ch</w>
De part
r ying</w>
musul man
discus sing</w>
at elor</w>
tranz ac
ci u</w>
d ge</w>
N ations</w>
C ând</w>
şti u</w>
tin eri</w>
sex u
o x
emisi ilor</w>
199 0</w>
gran ted</w>
equip ment</w>
Mi jlo
st ake</w>
repe de</w>
pre coniz
m elor</w>
simil are</w>
profes sional</w>
no ilor</w>
In deed</w>
îmbunătă ţ
su spec
rapo arte</w>
regul i</w>
prot est</w>
preven tion</w>
naţi on
anim al</w>
S us
H ol
ileg ale</w>
depl ină</w>
cel ui</w>
Mon et
J an
trat at</w>
pres ence</w>
i -au</w>
get ting</w>
desch iderea</w>
conce di
co tidi
activ ităţi</w>
sur ance</w>
st e
indu -
ex ces
er y</w>
arrest ed</w>
ar tea</w>
Mos co
do w
coordon are</w>
continu ing</w>
val ori</w>
rel aţii</w>
locu rile</w>
inform at</w>
elector al</w>
agri col
a- num
, 5</w>
wor ked</w>
spok es
efor turilor</w>
dem n
Bar on
ty pe</w>
oare le</w>
ită ților</w>
fo ot
discu ţie</w>
aeri ene</w>
tro ops</w>
sti pul
p ru</w>
nim eni</w>
isl am
N ab
A pro
put erea</w>
naţi uni</w>
intr a</w>
ci ties</w>
as in
Pro gres
M ari
stud ents</w>
reprezent a</w>
e ţi
amint esc</w>
Intern aţi
uş or</w>
p a
ir a</w>
consider ation</w>
ans ambl
T er
Mid dle</w>
sprij inirea</w>
in ţi
happ y</w>
for get</w>
dreap ta</w>
prob ably</w>
n ice</w>
attem pt</w>
E G
ț ină</w>
sci ence</w>
pozi tivă</w>
mo bility</w>
exp end
al ei</w>
individu ale</w>
ea pă</w>
sub ven
sch ed
p aren
monitori zare</w>
com ments</w>
anim alelor</w>
advant age</w>
ad d</w>
E ven</w>
- ului</w>
w il
dovedi t</w>
buget ar</w>
aj ust
Got ovina</w>
tex tul</w>
pe ac
exp ect
attem p
Lib ia</w>
D S</w>
ur ge</w>
renew able</w>
rec ente</w>
asu m
apro vizion
T al
pi pel
ef ectele</w>
eas y</w>
cho ice</w>
Mit ro
ț ărilor</w>
tack le</w>
ris c</w>
mi j
convin ced</w>
P act</w>
Autorită ţile</w>
Ac ordului</w>
reprezentan ţii</w>
oraş ului</w>
kosov ar</w>
al ătur
Nab uc
vo ice</w>
tre ce</w>
agri cultură</w>
A no
sprijin it</w>
en for
bo ard</w>
sti c</w>
no ului</w>
magh i
desch id
c ou
bulg ar</w>
Slobo dan</w>
apăr are</w>
AC P</w>
wel com
welcom ed</w>
wea p
s ei</w>
ră mân</w>
n es
lim ba</w>
et ings</w>
dez ast
con stan
Ano ther</w>
j an
activ ităţile</w>
Nabuc co</w>
F er
A u</w>
au d
ţi unea</w>
sâr bă</w>
sex ual</w>
particip a</w>
f ying</w>
O per
Deput y</w>
rap h</w>
perso ană</w>
perform ance</w>
mit ă</w>
l er</w>
element e</w>
Jap an</w>
Ci pru</w>
plan ts</w>
h und
event u
comp ared</w>
ain s</w>
l is</w>
Mijlo ciu</w>
addres sed</w>
Sw ed
m uz
F ol
vie ţii</w>
mul ți</w>
Uni versity</w>
Portug al</w>
ti a</w>
religi oase</w>
inv it
f rec
descri bed</w>
cre de</w>
Fil m</w>
âm bă
âmbă tă</w>
strong er</w>
conduc ted</w>
coe ren
year -
q i</w>
pro pose</w>
f en
en largement</w>
con soli
com it
ajung ă</w>
interven tion</w>
aint e</w>
ader ării</w>
a des</w>
Ol li</w>
under standing</w>
Minist erul</w>
sănătă ţii</w>
sub min
situ ations</w>
contr adic
bin ding</w>
acord area</w>
D S
ş apte</w>
înch eia</w>
uni versit
ran ge</w>
pri son
oper ating</w>
cabin et</w>
0 ,000</w>
fon d</w>
curren cy</w>
contribu it</w>
adop ta</w>
oportun itate</w>
ne l</w>
Po dg
guvern ământ</w>
domn ului</w>
S te
vulner able</w>
low ing</w>
h an</w>
condi tion</w>
buil dings</w>
S A</w>
situ aţii</w>
creş terii</w>
compani ei</w>
bure auc
Vice- President</w>
N eg
vot uri</w>
re ţ
T w
8 th</w>
urgen ţă</w>
tem ei
stră in
mo bile</w>
juc at</w>
guide lines</w>
extin dere</w>
diver si
Al ex
pl ause</w>
any thing</w>
Pap and
săr b
rev olu
şti inţi
benefic ia</w>
Brit anie</w>
victim elor</w>
respon sibilities</w>
mă car</w>
maxim um</w>
gr adu
com men
cel ei</w>
Mondi ală</w>
revizu ire</w>
resp ins</w>
preven irea</w>
ma să</w>
S he</w>
poli ţia</w>
câ ţiva</w>
consist ent</w>
Pol onia</w>
Organ isation</w>
Me sic</w>
Dj ind
y s
ther wise</w>
Stoc k
B H</w>
viol ations</w>
transi tion</w>
destin ate</w>
ac ea</w>
Q u
Mon teneg
Djind jic</w>
wea k
milit ară</w>
kil led</w>
it ure</w>
de teri
ar rang
P ut
N at
A plau
sha red</w>
ab uz
Me an
M ex
0 s</w>
îndepl inirea</w>
regim ului</w>
omolog ul</w>
negoci ere</w>
aer ian</w>
Urmă torul</w>
H am
pl ec
ore ze</w>
mo artea</w>
instrum entele</w>
ic ii</w>
difer itele</w>
democra ţiei</w>
aff ect</w>
3 .
speci ală</w>
posi bile</w>
im pre
accoun ts</w>
Mean while</w>
semn a</w>
pro sp
health care</w>
bine înţeles</w>
accid ent</w>
In t
ă ţii</w>
tiv ele</w>
w ent</w>
următo area</w>
sign al</w>
de t
îndepl ini</w>
lar g</w>
spe ed</w>
o lic</w>
me etings</w>
gre en</w>
agricol ă</w>
U K</w>
4 00</w>
plac es</w>
comp ania</w>
cl au
Re pub
8 -
put ting</w>
pi ață</w>
ofici ale</w>
mi gra
Euro -
să- și</w>
preven i</w>
of fered</w>
intern ațional</w>
er t</w>
dra wn</w>
N ou
tiv ei</w>
ish ing</w>
hi bi
ap el
an chet
sper ă</w>
cont ent</w>
ad voc
mi ş
memb rilor</w>
exerc ise</w>
Monteneg rin</w>
invest ors</w>
ful fil
de șe
0 .
w ed</w>
vot ers</w>
produc ed</w>
perm it</w>
journ alists</w>
freed oms</w>
aşte pt
S D</w>
H I
mand atul</w>
li ka</w>
hol m</w>
Americ an</w>
me ze</w>
lucră torii</w>
deput ați</w>
correc t</w>
Swed ish</w>
er ous</w>
af fairs</w>
ac ter</w>
St ability</w>
Papand re
wor k
solidar itatea</w>
dest ro
d ol
an ni
Th e
un able</w>
rur ale</w>
priv ință</w>
priv at</w>
m ous</w>
Part ener
3 rd</w>
t oni
focu sed</w>
consider ăm</w>
acord ată</w>
ide as</w>
az i</w>
În tr-
zi unii</w>
efectu ate</w>
direc ţia</w>
avertiz at</w>
allow ing</w>
Stock holm</w>
On ly</w>
tel ef
rat a</w>
pri son</w>
popor ului</w>
k ov
dur abile</w>
autorită țile</w>
al ităţi</w>
Repub lika</w>
Lu ka</w>
Ash down</w>
între b</w>
struc tion</w>
sp ace</w>
s âmbătă</w>
Def ence</w>
2 -
un ării</w>
sistem e</w>
fi g
el ab
construc ţia</w>
ab st
S V</w>
Ori entul</w>
Com it
ment ul</w>
educ aţie</w>
asist ență</w>
abil itate</w>
Uni versit
buil t</w>
alestini an</w>
v in</w>
import s</w>
hop es</w>
ecolog ice</w>
dific ile</w>
conclu ded</w>
lim it</w>
implic area</w>
confirm at</w>
cent ury</w>
W el
Papandre ou</w>
Financi al</w>
4 5</w>
re me</w>
it area</w>
isl and</w>
Aplau ze</w>
tax e</w>
fic ării</w>
I s</w>
Ab dul
wh ere
is mul</w>
auz it</w>
suf fering</w>
on able</w>
constru irea</w>
K al
C ea</w>
6 th</w>
mini ştri
l ands</w>
jurn ali
L ab
îndeplin ească</w>
înc eapă</w>
un ic</w>
play ed</w>
mi x
for ţele</w>
employ ees</w>
sen tim
pier d
auth ori
L id
z eci</w>
ti p
organiz area</w>
lim b
h ab
emerg ency</w>
deoseb ită</w>
com port
at lan
Sud -
O h
C ele</w>
B ran
s mo
fron t</w>
E gi
întâlni re</w>
semn al</w>
popul ar</w>
număr ului</w>
net works</w>
ce il
aten ție</w>
ass ador</w>
as asin
In du
AL DE</w>
o gra
li t</w>
jo acă</w>
grupu rile</w>
collea gue</w>
baz ată</w>
je vic</w>
h am
dezbat erii</w>
S âr
înce p</w>
sev ere</w>
semnific ativă</w>
rezol va</w>
inclu sion</w>
ho urs</w>
est er
complet ed</w>
Podg orica</w>
ur ban</w>
princip ale</w>
D ay
C ha
pen sion</w>
individu als</w>
f ear</w>
Într- adevăr</w>
criter ii</w>
un e
int eli
H R</w>
înto ar
inţ elor</w>
decizi ile</w>
de la
Pe ace</w>
sh ad
ob țin
eţi -mi</w>
c entru</w>
activ ă</w>
sy m
sig ning</w>
pach etul</w>
bro ad</w>
ut in
contin ent</w>
afl ăm</w>
Ber l
telec om
rezolu ţia</w>
lans area</w>
fi x
ea st
dev ine</w>
ar tă</w>
Li thu
uni vers
li ghts</w>
ger man
fin ală</w>
em is</w>
dro g
ating e</w>
an ul
Stat elor</w>
Al i</w>
tax pay
pie ţele</w>
dis par
di strug
cid ent
Agen ţia</w>
am ă
V en
ul terior</w>
tot ală</w>
bureauc r
C AP</w>
n d</w>
cop ul</w>
ati cally</w>
înfiinţ area</w>
pur ch
def end</w>
comer ț
Egy pt</w>
Î m
su red</w>
estim ated</w>
E I
Dezbat erea</w>
re ţel
provo care</w>
ma kers</w>
tl ement</w>
proiect ele</w>
l ad
consider able</w>
comis arul</w>
arm ed</w>
Wi th
2 nd</w>
tr uly</w>
produc ţie</w>
dep ăr
cri mei</w>
continu area</w>
Y ugoslav</w>
Pop ular</w>
pur tă
inform ed</w>
hea v
gra v</w>
esenţi ale</w>
c ân
R O
Aud itors</w>
ră u</w>
rel eased</w>
redu se</w>
pregăti tă</w>
neighbour ing</w>
Day ton</w>
su d-
sper ăm</w>
reglement ări</w>
oc ca
gen der</w>
com bu
ativ ele</w>
L am
vehic les</w>
th ought</w>
s lab
l ună</w>
ga ve</w>
coleg ilor</w>
bec ame</w>
ON G
I cel
Con turi</w>
su ger
regul atory</w>
justi ţie</w>
fo sta</w>
cu rile</w>
E i</w>
stabil ească</w>
spea king</w>
pozi ția</w>
nor th</w>
g i</w>
f are</w>
du bl
închis oare</w>
sc ară</w>
m y
efor t</w>
de tri
con sens</w>
candidat es</w>
anim als</w>
trat ament</w>
struc turii</w>
regul ar</w>
it age</w>
comunit are</w>
F estiv
Extern al</w>
C S</w>
n omin
n ed
h ear</w>
găz du
exac tly</w>
consul taţi</w>
as c
St an
Ap plause</w>
thin king</w>
sk il
revizu irea</w>
manif est
istori a</w>
fri end
electron ic</w>
echilib ru</w>
N evertheless</w>
F ac
B il
is er
dev reme</w>
desch isă</w>
E ven
E F
Con fer
sensi tive</w>
pro motion</w>
mas s-
con str
Prin cip
A fac
rol ului</w>
reprezent at</w>
raport orului</w>
princip alul</w>
ch ing</w>
amo un
priv atisation</w>
popor ul</w>
gestion are</w>
S pri
signific antly</w>
l ect
influ en
cheltuiel ile</w>
ban king</w>
analy sis</w>
1 50</w>
- in-
prot ected</w>
peric ul
expend iture</w>
euro -
Spri j
st ul</w>
off ers</w>
neg ativ</w>
desch ide</w>
ar my</w>
em i
ab road</w>
0 m</w>
war ned</w>
red und
li sta</w>
democra ţie</w>
consec inţă</w>
aline atul</w>
Cul ture</w>
întâmp la</w>
raport orul</w>
fac ilities</w>
accep ted</w>
P S</w>
re mind</w>
exp an
c itate</w>
D anu
s cep
intere sted</w>
b ari
an un
us eful</w>
rez on
program ele</w>
f e</w>
et ed</w>
Partener i
N um
Doam n
partener ii</w>
afir ma
N u
vot ului</w>
liber tăţii</w>
intere se</w>
grupu rilor</w>
Ar c
temei ul</w>
sol di
leg ale</w>
l -am</w>
iz a</w>
af e
Probl ema</w>
we ek
profe si
hol ds</w>
folos ite</w>
w in</w>
to ol</w>
Oh rid</w>
O lim
urm at</w>
prom isi
pre g
fra ud</w>
efici enţa</w>
de gre
condi ții</w>
Secret arul</w>
O M
sing urul</w>
re ște</w>
pay ment</w>
ob tain</w>
fi l</w>
east ern</w>
Protec tion</w>
Ofici alii</w>
Cent rul</w>
u su
tot uși</w>
ta int
răsp ân
produc ţia</w>
just ment</w>
aprob area</w>
appe al</w>
E a</w>
Doamn elor</w>
urm ătorii</w>
lu ată</w>
even imente</w>
bo ok</w>
ad d
w o
in tre</w>
eg alitatea</w>
dr a</w>
com mis
cl us</w>
ci pe</w>
bo g
alis e</w>
Mitro vica</w>
vech i</w>
utiliz ării</w>
s ea</w>
pipel ine</w>
m ing</w>
R ob
Cri za</w>
z ută</w>
rest ul</w>
pre limin
mov ing</w>
sm all
profesion ală</w>
obţin erea</w>
invol ving</w>
even iment</w>
4 th</w>
public at</w>
n ord</w>
iz ol
in spec
in evit
docu mente</w>
w in
v ill
substan tial</w>
ocu pă</w>
lung ul</w>
consumat ori</w>
a w</w>
Program ul</w>
Danu be</w>
op tion</w>
mer ge</w>
ileg al</w>
fo ur
ea sier</w>
contro vers
aşte ptăm</w>
ac ce
Th ir
public ului</w>
og lu</w>
exerciţi u</w>
disast ers</w>
cer ti
T e
şom ajului</w>
require ment</w>
initi al</w>
hear t</w>
amend amentele</w>
Rad ovan</w>
poten ți
directiv ei</w>
V an</w>
La dies</w>
Co oper
ţion at</w>
ne t</w>
drum ul</w>
cre ează</w>
cre dem</w>
corec te</w>
cel or
acuz at</w>
a dem
Vo i</w>
F u
întreg ul</w>
vo y</w>
ar ding</w>
Se j
val oarea</w>
sh o
redu s</w>
l un
great est</w>
comp liance</w>
ac ting</w>
I T
întreg ii</w>
rel ease</w>
re trag
re r</w>
oblig ation</w>
iniţi ativa</w>
de ces
conflic tului</w>
si ei</w>
deput at</w>
competitiv itatea</w>
anteri oare</w>
S P</w>
tradi tional</w>
sp ori</w>
pres a</w>
cost urilor</w>
ber g</w>
ating erea</w>
at mo
- ar</w>
ren un
anim ale</w>
Afri can</w>
sum mer</w>
stric te</w>
r ului</w>
a stă</w>
înch isă</w>
sur să</w>
su ede
studi u</w>
parti delor</w>
im posed</w>
ar me</w>
Gi ven</w>
r uti
numer o
fisc ală</w>
fac tors</w>
evalu ation</w>
combu sti
ani ei</w>
alist e</w>
ul ed</w>
some times</w>
sol ve</w>
sec toare</w>
re ds</w>
investi ţiile</w>
de cre
as ks</w>
tiv ely</w>
ter țe</w>
restric tions</w>
procedu rii</w>
peac eful</w>
Th ose</w>
An nan</w>
înch eie</w>
taint y</w>
ju k
intr at</w>
cer tainty</w>
cap able</w>
aj e</w>
ach es</w>
hol ders</w>
high light</w>
high ligh
di stan
summit ul</w>
mon itor</w>
celor l
av ans
ști a</w>
weap ons</w>
u at</w>
siv ely</w>
comerţ ului</w>
c ast
W ar</w>
în v
pen sion
op ri
op posed</w>
mil lions</w>
ha se</w>
benefic ii</w>
Su b
PA C</w>
victim ele</w>
sur prin
nevo ile</w>
n r</w>
comisi ei</w>
b ers</w>
afirm a</w>
Jap onia</w>
străin ătate</w>
ir lan
im puse</w>
export s</w>
din tr-un</w>
deteri or
conv ins</w>
tehnolog ii</w>
proto col</w>
Afgan istan</w>
un ic
traf fic</w>
strug g
safegu ard</w>
risc ul</w>
pe o
dezvol tate</w>
declar aţia</w>
deci sive</w>
compl y</w>
col o</w>
suver an
perspec tivă</w>
ma ss</w>
enfor cement</w>
căl ători
Fre e</w>
Ch arter</w>
sufer ă</w>
pre -
no ii</w>
milit ar</w>
încer ca</w>
schimb ul</w>
măsur a</w>
li m</w>
guvern are</w>
genu ine</w>
exten d</w>
t ează</w>
inst ance</w>
ide e</w>
facil ita</w>
ea și</w>
to arele</w>
direc torul</w>
combat ere</w>
b ad</w>
An ul</w>
1 1
ț ara</w>
wor d</w>
f estiv
Kur dis
în so
tain ing</w>
reach ing</w>
obi ş
ob viously</w>
de loc</w>
prevă zute</w>
i ilor</w>
dis poziţie</w>
abl es</w>
Tom islav</w>
L in
F rom</w>
încuraj a</w>
vic tori
une ori</w>
st ay</w>
prosp ects</w>
presid ential</w>
o fi
jo ined</w>
inclu se</w>
distribu tion</w>
candi dat</w>
ar ily</w>
A ir
lo ss</w>
ist e</w>
garan teze</w>
di t</w>
de lay</w>
Sum mit</w>
Pro punerea</w>
Ira k</w>
Invest ment</w>
sprijini m</w>
sou thern</w>
p hase</w>
it ely</w>
allow s</w>
ac te</w>
z ilor</w>
v ent</w>
succes s
c ul</w>
al ţii</w>
Sing le</w>
Nou a</w>
t led</w>
go t</w>
exist ence</w>
direc tiva</w>
de ţin
Mer k
E R
sufici entă</w>
inteli g
9 th</w>
there by</w>
ester day</w>
autom ob
atri bu
appoint ed</w>
F I</w>
Au th
salut at</w>
pl ement
limit ă</w>
glob alizare</w>
de și</w>
sp on
re ference</w>
int el
eni or</w>
critic ism</w>
ar d
Portug alia</w>
în depăr
tot alitate</w>
pe rea</w>
obiş nu
lo ans</w>
importan ța</w>
abord a</w>
S copul</w>
5 5</w>
realiz ate</w>
plen ary</w>
in sp
ec hn
dang erous</w>
b ing</w>
af la</w>
Even iment
mod alitate</w>
medic ală</w>
chang ing</w>
S uch</w>
Fol lowing</w>
Abdul lah</w>
A S</w>
4 4</w>
ri es</w>
l av
grec i</w>
fir stly</w>
el se</w>
contr ary</w>
br ut
In stitute</w>
Cr ven
Bosni ei</w>
19 7
righ tly</w>
edi a</w>
ea red</w>
cheltuiel ilor</w>
bărb aţi</w>
at ins</w>
D nev
neighbour s</w>
K ra
judici ary</w>
int ele</w>
iniţi al</w>
form at</w>
consum ption</w>
coleg i</w>
bosni ac</w>
actu ala</w>
C ap
cre eze</w>
bi r
ad un
Proi ectul</w>
solicit ăm</w>
iniţi ative</w>
folo sit</w>
di vers
K on
D juk
vis ited</w>
ist s</w>
inter n</w>
ide i</w>
happen ing</w>
f ug
afect at</w>
ackno wled
Pol ice</w>
Cri min
A ș
vac cin
pă st
prezi den
biro cra
any one</w>
Sej diu</w>
te x</w>
im a</w>
fi re</w>
exerci ți
continu ăm</w>
solicit a</w>
electri ce</w>
ect elor</w>
con tains</w>
ag ement</w>
C et
înregi st
trafic ul</w>
spun em</w>
produc tive</w>
di k</w>
ansambl u</w>
sp it
ro mân</w>
dow n
cl aims</w>
ap preci
acor durilor</w>
Reg atul</w>
tin erii</w>
sched uled</w>
l and
hon ourable</w>
cin eva</w>
ch air
cau ses</w>
Vla di
U E-
M a
integr ate</w>
inov are</w>
b ai
Poli tica</w>
B oth</w>
prosecut or</w>
prim- ministru</w>
pensi i</w>
dez amă
adăug ând</w>
F ără</w>
relev ante</w>
on ali</w>
mis e</w>
investi ții</w>
improv ements</w>
eviden ţi
su te</w>
reflect ă</w>
determin ation</w>
d t</w>
b lic</w>
ac țion
V O
Tran s
Fron tex</w>
E ch
sper an
mark ed</w>
mand atului</w>
loc ală</w>
interes elor</w>
commis sion
adop ting</w>
accep ta</w>
Ch in
locu rilor</w>
l iter
con ţine</w>
ch ap
L ju
Do dik</w>
Crven kovski</w>
tic i</w>
redres are</w>
rapo ar
prac tic</w>
parti cipe</w>
monitori zarea</w>
dez b
decl ared</w>
aut oriz
P PE</w>
O s</w>
sec ret</w>
im migrants</w>
Pu blic</w>
B en
ă ţ
în apoi</w>
scho ols</w>
r am
presi uni</w>
do m</w>
dec ades</w>
app ear</w>
ad junc
Rez olu
R D</w>
Înal tul</w>
su port
resp ected</w>
r ug
priv ileg
oper ational</w>
mun teneg
coordin ated</w>
Drag an</w>
ö m</w>
subi ectul</w>
sp atele</w>
re pre
primar ily</w>
oc cu
aliz at</w>
vecin ătate</w>
r are</w>
norm elor</w>
defin itely</w>
de fici
atra g</w>
v an</w>
ur ban
rema ining</w>
str öm</w>
bosni aci</w>
Per mit
Kurdis h</w>
Cipr ului</w>
transfrontali ere</w>
meth ods</w>
form ation</w>
enor mous</w>
A I
punc tele</w>
offic ers</w>
li b
incid ent</w>
ac elor</w>
înde aproape</w>
om an</w>
afect a</w>
ad ică</w>
acord ăm</w>
Wh y</w>
Pl an</w>
PI B</w>
stră ini</w>
pl ur
origin al</w>
ol ele</w>
ob ser
men ţine</w>
comerţ ul</w>
alt fel</w>
VO A</w>
vers ary</w>
sustain ability</w>
preg ăt
credi bility</w>
a- l</w>
respons abile</w>
parten er</w>
lo s
Po ate</w>
thre aten
it able</w>
at titu
Res earch</w>
Islam ic</w>
proce durilor</w>
man age</w>
excel entă</w>
encour aging</w>
utiliz at</w>
tax es</w>
ob vious</w>
acel eaşi</w>
So lid
S ist
E duc
Ar men
A zer
radi o
med iter
cut s</w>
b it</w>
201 4</w>
w ritten</w>
ver dic
transpor tului</w>
secu tion</w>
rid ică</w>
regim ul</w>
h ands</w>
d area</w>
S ci
S a
EC R</w>
vol um
sovere ign
in und
impac tului</w>
ab use</w>
S af
termen i</w>
re m
pre dic
on e-
man der</w>
barri ers</w>
Mondi ale</w>
Bri tain</w>
întâlni rea</w>
wor l
sac ri
păr ți</w>
jo ining</w>
em en</w>
complet ă</w>
budget s</w>
Ne ther
si stă</w>
V a</w>
H is</w>
Djuk anovic</w>
încerc ăm</w>
viz itat</w>
ro s
r ad
presi une</w>
ori es</w>
organiz aţii</w>
mediter an
com ise</w>
Pre ședin
peo ples</w>
de part
aw aren
Azer bai
tri ed</w>
spori rea</w>
s aw</w>
re au</w>
cer titu
princip ii</w>
lo se</w>
fre qu
consider abil</w>
an ţilor</w>
vorb esc</w>
terori ste</w>
soldi ers</w>
parlament ul</w>
n econ
inclu dă</w>
flexi bility</w>
fer mi
determin ed</w>
umanit ar</w>
ro ad
mit erea</w>
inter dic
comb ate</w>
ar c
administra ţia</w>
In stitut
3 ,
uti n</w>
sugg ested</w>
resolu tions</w>
modific are</w>
c aut
avi g
an o</w>
viit orului</w>
soluţion area</w>
f ish</w>
eg al</w>
distin c
bu cur</w>
aten ția</w>
O mului</w>
L ea
wel fare</w>
susţin erea</w>
pet re
fai l</w>
ace şti</w>
Sp ea
ăr ul</w>
ultim ately</w>
r adic
legisl aţie</w>
do amnă</w>
believ es</w>
atr as</w>
ajust are</w>
abili ties</w>
Nether lands</w>
1 7
menţin erea</w>
amend amentul</w>
t one</w>
sovereign ty</w>
judic iar</w>
furni zarea</w>
exec ut
dimen sion</w>
de lic
T V
on ul</w>
misi unea</w>
meth od</w>
acces ului</w>
Olymp ic</w>
shad ow</w>
detail s</w>
condu să</w>
co op
v ali
t ent
semn area</w>
prim ească</w>
hibi tion</w>
Vladi mir</w>
t edly</w>
dis ease</w>
anni versary</w>
zi l</w>
redu că</w>
g ing</w>
fundament ală</w>
accu sed</w>
Tw o</w>
îmbunătăți rea</w>
son d
pr ud
modific ări</w>
Baron ess</w>
ver ing</w>
sur vi
condu cerea</w>
L an
E u</w>
C are</w>
voic ed</w>
sur ve
strân să</w>
st em</w>
point ed</w>
intr ă</w>
geo gra
fin ding</w>
effectiv eness</w>
contro ls</w>
Sy ri
D an
B lack</w>
urm ătoare</w>
schimb a</w>
ful fil</w>
fic ăm</w>
exprim are</w>
d y
aj ute</w>
adres ez</w>
Pro ced
Presid ent
He alth</w>
Fund ament
Fat mir</w>
şti e</w>
s lov
pu y</w>
af i</w>
v ină</w>
thre ats</w>
strateg ice</w>
sper anţa</w>
realis tic</w>
n el
k ov</w>
in ci
hand ic
elimin ate</w>
ak u</w>
provoc ările</w>
preţ urilor</w>
prevent ing</w>
obstac les</w>
intel lig
angaj amentele</w>
agricul turii</w>
af for
Fr amework</w>
ty p
tr up
t ests</w>
statis tics</w>
servici u</w>
produc ătorii</w>
fer ovi
bu c
asigur ă</w>
rezolv area</w>
pre pare</w>
obţin ă</w>
lear n</w>
im possible</w>
eveniment ele</w>
defin ed</w>
Tribun alul</w>
S tat</w>
term ine</w>
report ers</w>
interes ate</w>
de e
trans actions</w>
tic ile</w>
st ar</w>
re u</w>
pos ing</w>
mijlo ace</w>
innov ative</w>
ere i</w>
dis cursul</w>
de signed</w>
proces ses</w>
po lu
m ilor</w>
f f
exper t</w>
en ing</w>
d au</w>
contribu abil
conduc t</w>
al ed</w>
Regi onal</w>
Direc tivei</w>
s tic
ri g
regi unilor</w>
pun erii</w>
potri vă</w>
po l</w>
parag raph</w>
im pres
cl am
chesti unile</w>
Rom puy</w>
I ran
războ iului</w>
pas s</w>
mențion at</w>
legisla ția</w>
l ini
independ ente</w>
comp anie</w>
awaren ess</w>
asist enţa</w>
D ori
Comun itatea</w>
stand s</w>
refer red</w>
mijlo acele</w>
ceremon y</w>
analiz a</w>
M or
Icel and</w>
en voy</w>
S am
A R
tur ned</w>
so und</w>
rezer v
oy ment</w>
materi al</w>
g ri
b ear</w>
arm s</w>
D ocu
Ar my</w>
supra vie
con n
b and</w>
atten ded</w>
ativ ely</w>
ali ştii</w>
Ex per
to ții</w>
sti ce</w>
s enior</w>
program elor</w>
hea d
d eri
G al
g ain</w>
expect ations</w>
econom iile</w>
diplom atice</w>
de mar
accep te</w>
Speci al</w>
ur al</w>
pow er
ofer ite</w>
n it</w>
j ur
h or
char acter
associ ated</w>
Sist em
Merk el</w>
z ii</w>
caz urile</w>
atra ge</w>
ad use</w>
tre ia</w>
săr ace</w>
legisl ativă</w>
inter vi
form are</w>
firm ly</w>
critic at</w>
aplic ate</w>
anum ită</w>
Mus lim</w>
C al
încăl care</w>
sit es</w>
ru g</w>
recommend ation</w>
pri mi
cul turii</w>
cercet ării</w>
ar bit
ac ted</w>
N im
EI B</w>
6 5</w>
În tr
p a</w>
ori tare</w>
explo itation</w>
ade i</w>
În tr-un</w>
seri oase</w>
fă cută</w>
eg ov
di str
ab ia</w>
Comis arul</w>
re vision</w>
geo graph
bucur ă</w>
amend ament</w>
acord ate</w>
ONG -
C eh
Ass embly</w>
transm ite</w>
strateg ies</w>
plan ului</w>
expl ained</w>
enti tă
ăs escu</w>
so sit</w>
pl ying</w>
is mului</w>
găs ească</w>
e şti</w>
comunic are</w>
col ab
co ast
R F
proiect elor</w>
lung ă</w>
for ţ
W est</w>
Mul ţi</w>
u area</w>
strengthen ed</w>
si mul
reas onable</w>
pregăti t</w>
po po
intern ațională</w>
eff er</w>
dimin ea
add afi</w>
Sol ic
ţi t</w>
wor st</w>
represent ed</w>
ma ş
lucr ăm</w>
independ enţei</w>
St ef
Chin ese</w>
201 5</w>
trim is</w>
pro cure
plan urile</w>
ne fericire</w>
inaccept abil</w>
Un ul</w>
Sch effer</w>
No ul</w>
M ă
y outh</w>
urm ătorul</w>
refl ect</w>
radi o</w>
parliament s</w>
lucră tori</w>
acce si
R ul
Dezvol tare</w>
spo ke</w>
priorită ţile</w>
luc reze</w>
explic at</w>
cetăț eni</w>
be ha
Comp ania</w>
Com er
recuno aşte</w>
oare i</w>
ger man</w>
di ul</w>
dezvol ta</w>
conduc ere</w>
at i</w>
P an
Obiectiv ul</w>
ep t</w>
enjo y</w>
en ți</w>
dur ata</w>
debat es</w>
cunos cut</w>
buget ară</w>
accep tat</w>
Pro to
Ho op</w>
Dec iz
-in- Office</w>
schimb at</w>
lo an</w>
demonstr ate</w>
apă rarea</w>
angaj at</w>
W ritten</w>
S ali</w>
Iugosla vie</w>
3 4</w>
taxpay ers</w>
B ăsescu</w>
primar y</w>
ma y
m ări
guvernament ale</w>
er adic
adres ată</w>
G r
EG F</w>
BE I</w>
w on
it orilor</w>
hol ding</w>
e ște</w>
demonstr ated</w>
cour ts</w>
V or
reuni unea</w>
qu ar
propri i</w>
lin k</w>
institu țiile</w>
in tim
in ia</w>
coment ari
Ru siei</w>
D en
n ine</w>
lic it
iz at</w>
form al</w>
fl ag
emisi ile</w>
contribu tions</w>
bre ak</w>
Pa ul</w>
şti ri</w>
x emb
promis ed</w>
on or
lip să</w>
histori c</w>
ga z</w>
can ti
An toni
spori tă</w>
repe at</w>
enti ty</w>
de ţi</w>
coordon area</w>
4 .
ţ u
încân tat</w>
tradi tion</w>
plăt ească</w>
doamn a</w>
den um
balcan ice</w>
aş a-num
u zi
sto od</w>
infra structurii</w>
gr ant</w>
G addafi</w>
si unii</w>
ra ising</w>
obligatori u</w>
liber al</w>
arm ing</w>
între g</w>
wa iting</w>
reprezent ant</w>
oc k</w>
lucr at</w>
l ec
cont amin
N aţional</w>
simp lif
hund reds</w>
ei -
decizi ilor</w>
de termine</w>
coll ective</w>
citiz en</w>
ci fr
înțel es</w>
observ er</w>
extre me</w>
er ro
des c</w>
defici en
adăug ată</w>
At unci</w>
În ainte</w>
te ren</w>
tan gi
num bers</w>
d eni
baz ate</w>
appoint ment</w>
G oran</w>
- based</w>
st adi
investi ţiilor</w>
finanț area</w>
fiec ăr
di an</w>
cri ses</w>
coll abor
an ilor</w>
Direc tor</w>
ți onale</w>
şti rile</w>
înțel eg
plan uri</w>
ag no
B ine
- year</w>
sarc ina</w>
ob ic
industri e</w>
fin e</w>
C O</w>
ofer im</w>
mondi ale</w>
gă sim</w>
folos i</w>
M ării</w>
Glob alisation</w>
procure ment</w>
gândi m</w>
fac es</w>
con vic
bun uri</w>
Mo st</w>
H D
uti v</w>
asigur ări</w>
alleg ed</w>
Președint e</w>
For mer</w>
Cu ba</w>
Bus h</w>
scr utin
ro v</w>
rest aur
l -au</w>
im pul
ic ul
T op
President -in-Office</w>
M is
wor se</w>
vre m
ti ally</w>
st are</w>
ris ing</w>
r ut
monet ary</w>
me reu</w>
juc a</w>
interi orul</w>
consider ată</w>
britan ic</w>
alloc ated</w>
R L</w>
Nik olic</w>
Într ucât</w>
vorb i</w>
tre pre
serv ed</w>
guarante ed</w>
de ap
cost uri</w>
condi țiile</w>
con ști
an ele</w>
Un ii</w>
RF E</w>
Crimin al</w>
st or
ser ves</w>
respons abilă</w>
ind ică</w>
i ther</w>
consec inţele</w>
cl aim</w>
car acter</w>
bi re</w>
Par is</w>
învă ț
prepar ing</w>
cercet area</w>
Vu k</w>
Pri ma</w>
Ali anţei</w>
w oman</w>
strateg ică</w>
solicit area</w>
păr ţile</w>
exces sive</w>
desch ise</w>
app lies</w>
Stre am</w>
Afac eri</w>
utiliz are</w>
recunoaş terea</w>
pur poses</w>
perf ect</w>
int end</w>
ic es</w>
fu el</w>
f ar
egov inei</w>
degre e</w>
K os
oc cur
nivel uri</w>
imag ine</w>
ass ess</w>
ac el</w>
D K</w>
telef on
stat e-
j urul</w>
funcţion ează</w>
fost ului</w>
ati es</w>
afac erilor</w>
Tra ian</w>
t al</w>
supravegh erea</w>
po vic</w>
opin ie</w>
exten ded</w>
du ties</w>
asp ir
6 00</w>
transparen ţă</w>
stit ui</w>
sav ings</w>
esenți ală</w>
en ab
der ul
compet ence</w>
bănc ile</w>
bi om
Sar k
M ak
în toc
un ited</w>
syst em
sp ați
pasag erilor</w>
ocup ării</w>
actu alul</w>
9 -
regi m</w>
pro ven
pen sions</w>
num it</w>
n ică</w>
func ţia</w>
aloc ate</w>
T an
Re port</w>
Pri m-
Amend ment</w>
vizit ei</w>
ver ti
prez enţa</w>
gă sit</w>
ecolog ică</w>
ad orul</w>
V AT</w>
NG Os</w>
E P</w>
D o</w>
vet er
v ers</w>
urg ently</w>
surs elor</w>
re ti
l aid</w>
critic ised</w>
consult ation</w>
aț ilor</w>
atac uri</w>
M ag
soli d</w>
prosper ity</w>
my self</w>
industri ale</w>
Do ar</w>
regener abile</w>
industri es</w>
im pose</w>
com ment</w>
care fully</w>
2 1st</w>
skil ls</w>
siguran ța</w>
lin ed</w>
infrastructur ă</w>
fig ure</w>
eas es</w>
con ţin
beha vi
angaj aţi</w>
al it
a- și</w>
solu ție</w>
ret ro
dig it
Arc tic</w>
A ra
îmbunătă ț
z ând</w>
vis ory</w>
th y</w>
tehnolog ie</w>
stat ut</w>
play ers</w>
me rely</w>
condi ţiilor</w>
af ară</w>
S il
vic tory</w>
sără cie</w>
sib ly</w>
m al
Y et</w>
T ar
ări e</w>
sufer it</w>
shi p
garan tarea</w>
g one</w>
feder al</w>
cre ăm</w>
Sark oz
Preşedin ţiei</w>
M ini
vin ov
introduc ing</w>
implic at</w>
expl ain</w>
materi als</w>
f ața</w>
divi ded</w>
dez vă
am eli
Sarkoz y</w>
trad ing</w>
let ter</w>
en ko</w>
ar h
anum it</w>
J ere
- up</w>
y es</w>
sub mit</w>
principi ului</w>
ofi ţ
inten tion</w>
aman lis</w>
Lu xemb
Kar amanlis</w>
Co re
vi ze</w>
tr ack</w>
sug erează</w>
spect ac
repre ne
redu să</w>
manufac tu
in clus</w>
ent reprene
echip a</w>
Int egr
încerc area</w>
top ic</w>
sequ ently</w>
s an
promov eze</w>
oper ators</w>
mi d
fal si
equ ally</w>
apl ice</w>
Ombuds man</w>
In st
B lo
200 7-
reuș it</w>
realis e</w>
pie ţe</w>
mini m</w>
implic aţi</w>
as sociation</w>
L itu
K ing
0 ,
ș om
s dic
ro milor</w>
rezi st
regul ile</w>
pu şi</w>
penal ty</w>
Has him</w>
E E
Chri st
Bi ro
0 th</w>
per ce
limit a</w>
inclu derea</w>
cuprinz ătoare</w>
agrico l</w>
T ai
Gre en</w>
wil ling</w>
ut h</w>
parlament ar</w>
d wide</w>
I ts</w>
Fin ance</w>
Egi pt</w>
y esterday</w>
te ren
refer ire</w>
it orul</w>
identi ty</w>
declar ând</w>
de pună</w>
bel gi
b ase</w>
Belgi an</w>
Bas escu</w>
st one</w>
drog uri</w>
S -a</w>
Gu ant
re cu
mor ning</w>
men țin
identi fied</w>
en -
apropi at</w>
ad ere</w>
Lu k
F ap
ur ch</w>
tempor ary</w>
targ eted</w>
lucr a</w>
hel ped</w>
friend ly</w>
ea ua</w>
directiv es</w>
cro aţi</w>
administra ţiei</w>
şti ţi</w>
reform ei</w>
n es</w>
mar ks</w>
juri sdic
gă sirea</w>
ed y</w>
En viron
y er</w>
si unile</w>
report edly</w>
pl aying</w>
mass- media</w>
m ed</w>
dezvol te</w>
contribut ed</w>
circul aţie</w>
apăr ut</w>
activ ităţii</w>
W omen</w>
sigur ă</w>
m uri
câ te</w>
camp anie</w>
W e
Regul amentului</w>
Monet ary</w>
venit uri</w>
v ey</w>
show ed</w>
m -am</w>
leg ături</w>
dialog ului</w>
requ ested</w>
păr in
po ore
pe deap
doamn ei</w>
at re</w>
Mal m
Fre ed
Ac t</w>
se em</w>
sarc ină</w>
qu esti
oblig aţia</w>
for ţelor</w>
el ic</w>
creș terii</w>
cre ării</w>
cer inţele</w>
Camer ă</w>
sus ține</w>
some one</w>
respon d
re lor</w>
le- au</w>
h ouse</w>
fon dul</w>
er ia</w>
şti inţă</w>
sp ital</w>
profesi onale</w>
n em
mod er
ec tions</w>
de liber
că tor</w>
Universit atea</w>
3 6</w>
suger at</w>
ministr ului</w>
inter medi
consider ing</w>
avi er</w>
ace știa</w>
D ut
tr ac
nivel urile</w>
legitim ate</w>
empha sis</w>
at ac</w>
as sist</w>
M ay
thre e-
solicit are</w>
harmon isation</w>
enti rely</w>
Drep turile</w>
Co st
înregistr ate</w>
remar ks</w>
prag m
oportun ităţi</w>
o li
mi d-
lect ură</w>
int elec
i ef
electri citate</w>
di ox
Maj oritatea</w>
Am bas
să- mi</w>
propriet ă
partener i</w>
lib ere</w>
highligh ted</w>
exper ţi</w>
ei j
disponi bil
dig ital</w>
at lantic</w>
199 1</w>
princip ala</w>
Un a</w>
re rs</w>
ea gă</w>
dou ble</w>
desfăş oară</w>
consolid ate</w>
concent reze</w>
coll ection</w>
cho ose</w>
agri cultura</w>
Ul tim
Str uc
B ak
ș i-a</w>
schem e</w>
prec ise</w>
gr ă
cre ască</w>
con ect
b y
Slov eni
R esp
Mil or
2 50</w>
us ers</w>
ri ch</w>
reli able</w>
for ţă</w>
ex pi
elector ale</w>
deli ver</w>
de scris</w>
Milor ad</w>
Antoni o</w>
u es</w>
tr uth</w>
re commen
publ ici</w>
liber ă</w>
liber alizarea</w>
di ed</w>
ar t</w>
Jere mic</w>
Ad justment</w>
Î mi</w>
oblig atorii</w>
hou sing</w>
her itage</w>
gener ate</w>
ent ed</w>
ear th
cuno şt
charg ed</w>
anu ale</w>
aleg erea</w>
adop tăm</w>
S we
scen ari
p aper</w>
in surance</w>
ileg ală</w>
desi re</w>
armat ei</w>
ab ol
Lithu ania</w>
L j
Eveniment ul</w>
Belgi um</w>
B ec
suf fered</w>
ro us</w>
re tr
ne ither</w>
misi unii</w>
justi fied</w>
int er</w>
in sist</w>
ați unilor</w>
aw a
abo li
L aj
Bra zil</w>
worl dwide</w>
v ară</w>
so f
report erilor</w>
long -
inov atoare</w>
gh ted</w>
gener ally</w>
dificultă ţi</w>
deput y</w>
concluzi ile</w>
con tra
comer ţ</w>
arm ate</w>
al ta</w>
D avi
r ant</w>
mi ţ
in ile</w>
din colo</w>
ali stă</w>
C N
tu rism</w>
re nov
pro cent
o red</w>
li fer
larg ely</w>
guvern elor</w>
contrac ts</w>
199 2</w>
zi ua</w>
vre m</w>
new sp
ex plan
dem anding</w>
av oc
aj ele</w>
ac u
Justi ţie</w>
sugg est</w>
min utes</w>
is ol
g s</w>
exist enţa</w>
ef ul
ban car</w>
Sud- est</w>
S up
S FOR</w>
5 th</w>
run ning</w>
refuz at</w>
o therwise</w>
mer g
jo ace</w>
govern mental</w>
get s</w>
emisi i</w>
amin tim</w>
ak ia</w>
Inst ead</w>
Au str
şed inţei</w>
În că</w>
s ets</w>
ph en
finan ces</w>
desfăşur at</w>
con stat
compens ation</w>
arri ved</w>
appro xim
anali ză</w>
T echn
success fully</w>
pled ged</w>
pie ţelor</w>
paren ts</w>
mur der</w>
d ăm</w>
N ob
s m</w>
prin tr-un</w>
mecanis me</w>
invol ve</w>
anc ing</w>
Slov ac
Rul es</w>
Proces ul</w>
Plan ul</w>
sârb ii</w>
re vol
popul aţie</w>
n ațional</w>
lan dei</w>
gro unds</w>
efic ace</w>
analiz ăm</w>
ac adem
wa it</w>
t asks</w>
sârb ilor</w>
maint aining</w>
k i
fai r
dor inţa</w>
difer ită</w>
dec enii</w>
ash i</w>
în semna</w>
wh at
ul t</w>
sin dic
leg at</w>
ish es</w>
il st</w>
cri tică</w>
condamn at</w>
concentr ăm</w>
aer opor
stabil ităţii</w>
so v</w>
se ze</w>
religi on</w>
person ally</w>
oblig aţiile</w>
in corpor
ed ings</w>
can cer</w>
ac an</w>
R ef
P I</w>
8 00</w>
ţ ul</w>
viz ita</w>
p ar</w>
famil ie</w>
din am
colabor are</w>
Situ aţia</w>
M c
Herţ egovinei</w>
propri ul</w>
particip ants</w>
nat ură</w>
fra ud
cred ite</w>
baz at</w>
apro p
af ter
Feder ation</w>
Fap tul</w>
re z</w>
n ic
ess or</w>
discrimin are</w>
determin at</w>
dat ele</w>
are stat</w>
ani vers
P alestinian</w>
K ov
Balcan ilor</w>
ver de</w>
u sh
th oro
sum ă</w>
s ului</w>
plă ti
patri mon
mil k</w>
im per
de poz
auster ity</w>
al d</w>
adu că</w>
Ko rea</w>
Dut ch</w>
provoc at</w>
pr ă
potri v
curen t</w>
S ah
F ile</w>
îngrijor are</w>
În tr-o</w>
th ly</w>
si ght</w>
răsp undă</w>
recuno aș
o poziţia</w>
motiv ele</w>
l en
judg es</w>
al tul</w>
Con ference</w>
spiri tul</w>
inclu d</w>
il ului</w>
dang er</w>
consoli deze</w>
commit tees</w>
cere re</w>
attitu de</w>
En largement</w>
vi g
to ols</w>
s ought</w>
s ea
minist erul</w>
identi fy</w>
h im
dr um</w>
datori ei</w>
com put
aplic a</w>
ab sor
Bal tic</w>
univers al</w>
su peri
pri or</w>
p aying</w>
ov ska</w>
os en</w>
is ra
frag ment
alban eze</w>
Soci alists</w>
teritori ală</w>
condi ţie</w>
bio diversity</w>
behavi our</w>
as sum
aliz ată</w>
G j
FE G</w>
Ag enda</w>
lea ving</w>
difer it</w>
comisi e</w>
băn ci</w>
M anu
Lin da</w>
Gen eva</w>
resul ting</w>
reprezentan ţi</w>
remar c
h an
for th
dra wing</w>
contribu ţie</w>
car s</w>
aw ard</w>
int ell
fri ends</w>
for ţa</w>
fiel ds</w>
desfăș ur
SE E</w>
Prim- ministrul</w>
P este</w>
F I
Ah met</w>
sovere ign</w>
proce edings</w>
particip ă</w>
nat ura</w>
lim its</w>
histori cal</w>
enti ties</w>
dezvă lu
corup ţie</w>
Dori m</w>
ţi unile</w>
n ord
k in
intell ec
differen ce</w>
adu c</w>
Mar t
scă dere</w>
reglement area</w>
los ses</w>
folos esc</w>
de pusă</w>
contribu ţia</w>
ati i</w>
Fo od</w>
E v
D l</w>
Apro ximativ</w>
Amb assador</w>
wit n
st ation</w>
recipro c</w>
n avig
medic ines</w>
execu tive</w>
depend s</w>
P C
D um
B eij
Aş a</w>
sem n</w>
politici enii</w>
mon o
dec ent</w>
civili an</w>
centr ală</w>
Strateg iei</w>
B an</w>
sugg es
suf fer</w>
str ation</w>
in struc
i ți</w>
gener ation</w>
educ aţiei</w>
ajut orului</w>
O ver</w>
viol en
uti l</w>
sp here</w>
pu ţine</w>
o ch
men ite</w>
judici are</w>
efectu at</w>
cl ause</w>
Tot odată</w>
Con serv
în cal
see ing</w>
ro om</w>
re amintesc</w>
pozi ţii</w>
ass ets</w>
apropi ere</w>
activ ităţilor</w>
of fering</w>
li stă</w>
introdu s</w>
intere sting</w>
forth coming</w>
conşti enţi</w>
br ings</w>
arest area</w>
Deciz ia</w>
vam ale</w>
pl âng
indic ated</w>
fi z
aş tere</w>
argum ent</w>
Dis cu
Ara b</w>
su d</w>
s qu
mean while</w>
flexi ble</w>
dy nam
ch am
ab s
Minist ers</w>
Malm ström</w>
L uc
Iv an</w>
Geor gi</w>
u z</w>
rezolu ţii</w>
propor tion
et apă</w>
e vic</w>
difer itelor</w>
di gn
ar y-
M ob
Bran ko</w>
z en</w>
vis as</w>
lid eri</w>
firm s</w>
coll ap
cipri o
Pet er
PI B
M eh
L et
In strum
Berl in</w>
Aş adar</w>
împied ic
În tre
year- old</w>
săn ăto
sun te
st ations</w>
respect ate</w>
mod ului</w>
misi une</w>
ader a</w>
activ ely</w>
vi ață</w>
tra i</w>
sfer a</w>
regist ered</w>
m em
furni za</w>
ei gh
dep une</w>
Swe den</w>
un fair</w>
su dul</w>
situ ații</w>
re patri
politici eni</w>
opini ons</w>
lab elling</w>
gh e
en ed</w>
determin a</w>
cuprin de</w>
concluz ie</w>
3 2</w>
în altă</w>
prim esc</w>
pac t</w>
nam o</w>
intelec tu
hon our</w>
d rug</w>
ambi ți
With out</w>
J avier</w>
20 th</w>
á namo</w>
vehic ul
t ment</w>
mani pul
langu ages</w>
fel t</w>
cent res</w>
are s</w>
T ou
Slov akia</w>
O am
Liber al</w>
Ham as</w>
Guant ánamo</w>
Ci vil</w>
vre au</w>
te ach
poli ţi
descăr carea</w>
Tran sport</w>
Serbi ei-
K y
Con sid
Ceh ă</w>
C auc
4 9</w>
vie wed</w>
succes ul</w>
su d
sti că</w>
s ave</w>
referen dum
pu sh</w>
prosecut ors</w>
marg in
infrastructur a</w>
democra ție</w>
cu rilor</w>
În treb
urg entă</w>
propriet ate</w>
ord ine</w>
op h
ex hibition</w>
en ţii</w>
constr ui</w>
O ther</w>
Mil an</w>
vi ză</w>
tre ated</w>
succe ed</w>
prezent ată</w>
pol on
p ice</w>
informa ţiile</w>
increas es</w>
elim ina</w>
de alt</w>
com mission</w>
King dom</w>
HD Z</w>
respec tivă</w>
recomand ările</w>
put eri</w>
poten ţial</w>
hotăr ât</w>
fel ul</w>
efec te</w>
dă un
direc ţie</w>
ci priot</w>
altern ativă</w>
Tra j
Stabil isation</w>
turis mului</w>
speci fică</w>
regul ate</w>
or aş</w>
eveniment elor</w>
Euro pol</w>
E N
tur că</w>
subsi dies</w>
s ort</w>
re uşi</w>
politic ally</w>
n on
modific area</w>
bul gar
Vot ul</w>
Par v
tre cere</w>
preţ ul</w>
im er</w>
fac tori</w>
ch em
ad verti
10 th</w>
ți uni</w>
încăl carea</w>
ur g</w>
tur n
struc turile</w>
protec ţiei</w>
ordin ary</w>
interz ic
clos ure</w>
acţion eze</w>
Th us</w>
Fund s</w>
su puse</w>
st ea
show ing</w>
resul ted</w>
iz ate</w>
im port</w>
folos ească</w>
dimen siunea</w>
declar aţii</w>
construc ţie</w>
bă tr
auth or</w>
ass y</w>
ac asă</w>
Karad aku</w>
Al ek
A păr
în con
ul teri
mis sions</w>
eg alitate</w>
ativ i</w>
N ot</w>
universit ă
scop uri</w>
menţion ez</w>
er ies</w>
detail ed</w>
c ării</w>
benefici ază</w>
asu me</w>
ar gu
an trepre
Servic iul</w>
J ocu
3 3</w>
şan să</w>
y an</w>
viol enţă</w>
stabili m</w>
serv ing</w>
pre al
isra eli
is a</w>
enh anced</w>
emerg ing</w>
dis eases</w>
cooper ate</w>
b our</w>
ti se</w>
supp lies</w>
sol daţi</w>
pre ţ</w>
post ul</w>
lov it
importan ță</w>
cl es</w>
c ard</w>
Ra dic</w>
D a
B uc
st ag
re loc
re construction</w>
neg li
exclu siv</w>
dis cre
dezast ru</w>
are i</w>
ajut ă</w>
un os
tur ceşti</w>
minim e</w>
j anovic</w>
ha z
dev ot
democra ţia</w>
cour age</w>
contro versi
S en
An ti
pro lifer
pri zon
pier de</w>
mul tin
flo or</w>
fiecăr ui</w>
extre mi
dis cur
con firm</w>
a şi</w>
S m
IMM- urilor</w>
7- 0
we b
ven i</w>
sen sul</w>
se siune</w>
pre viously</w>
power ful</w>
multil ateral</w>
exten sion</w>
cont est
al ităţile</w>
Nat asa</w>
oportun itatea</w>
gra d</w>
eg ale</w>
efor tul</w>
civili ans</w>
asoci ere</w>
Su pre
vec ine</w>
sust en
prov in</w>
mag az
istori c</w>
ey e</w>
do or</w>
ar itate</w>
alt ceva</w>
V M
O HR</w>
zer o</w>
viol ation</w>
st au</w>
se um</w>
rezolu ţiei</w>
reprezentan tul</w>
re în
pericul oase</w>
leg ă
inten țion
fores ti
con stă</w>
becom es</w>
Ram ad
Mex ic
H ai
B eta</w>
Ar mat
si x
recu per
pr on
pe ace
obstac ol</w>
muri t</w>
iz ării</w>
iniți ativă</w>
deput aţii</w>
dead line</w>
adv ance</w>
acți uni</w>
ab sur
Beij ing</w>
Be fore</w>
war ning</w>
red ac
preconiz ează</w>
legisla ției</w>
hom es</w>
handic ap</w>
facil ity</w>
enh ance</w>
dram atic</w>
Pen al</w>
responsabil i</w>
ow ned</w>
mas sive</w>
complic ated</w>
avo i
atitu dine</w>
J e
B aj
regul amentului</w>
re ve
principi ilor</w>
ph ys
our s</w>
f ast
adjunc t</w>
Sud an</w>
um ană</w>
tot ally</w>
solu țion
re min
preţ urile</w>
opozi ţiei</w>
intern ation
estim ează</w>
Put em</w>
viit oarea</w>
reuni une</w>
prom p
par ad
ni ght</w>
k ept</w>
gr ă</w>
el led</w>
direc ția</w>
direc tă</w>
Saf ety</w>
De oarece</w>
4 8</w>
1 -
ști m</w>
techn ological</w>
spokes man</w>
regul amentul</w>
ra in</w>
prot ests</w>
presi unea</w>
negoti ation</w>
dreap tă</w>
ca k</w>
tu r</w>
pers onale</w>
exam ples</w>
democra ției</w>
decl an
consec inţe</w>
conflic tul</w>
conf isc
co- ordin
Thir dly</w>
Rez ul
L ati
Jo si
Fundament al</w>
Chri sto
sh ed</w>
se ats</w>
s eg
reg re
monet are</w>
ent r
efici ența</w>
e ți
ad ân
Un ele</w>
Pac i
Bra zil
unil ateral</w>
ti g
telecom unic
ra il
propos ing</w>
mo stly</w>
fo unded</w>
famili ile</w>
famili ei</w>
dign ity</w>
consider ate</w>
auster itate</w>
V el
E M
Brazil ia</w>
A re</w>
12 th</w>
stak e
se eks</w>
schimb area</w>
progres ele</w>
municip alities</w>
heav y</w>
bătr ân
Tai w
Proced ure</w>
Parv anov</w>
z he
te h
rur ală</w>
prim ă</w>
organiz aţiile</w>
ga p</w>
ectiv ă</w>
desp ă
afl ată</w>
2007- 2013</w>
vulner abile</w>
viol ent</w>
tur a</w>
t eam
substan ces</w>
set tlement</w>
sem in
resol ving</w>
reduc eri</w>
mor al</w>
inter view</w>
guvern e</w>
combusti bil
az a</w>
Festiv alul</w>
A mon
televi ziune</w>
prov ed</w>
ori zon
oc cident
loc ali</w>
lic en
impl ice</w>
emor an
cro ate</w>
concuren ţei</w>
comerci ală</w>
K u
susţin em</w>
susp ici
salv are</w>
respect ul</w>
recomand ări</w>
lin ks</w>
ex tră
dur ată</w>
decl are</w>
dec ade</w>
analy sts</w>
Tribun al</w>
P ace</w>
Ob serv
Lon don</w>
Euro- Atlantic</w>
th -
pil ot</w>
ner ăb
com mander</w>
aloc at</w>
El ve
De și</w>
Conven ţia</w>
ş ef
zhe imer</w>
tou rists</w>
sec toarele</w>
glob alisation</w>
g e
dov ed
di agno
T P
Nov i</w>
uni form</w>
transparen ță</w>
tion ally</w>
restructur ing</w>
regist er</w>
ill ance</w>
excel ent</w>
attemp ts</w>
appe ars</w>
ap ari
al altă</w>
abord ăm</w>
Cy pri
A leg
sec re
recipro că</w>
rati fication</w>
pregăti rea</w>
mo di
fav ourable</w>
efici enţei</w>
cal ităţii</w>
amoun ts</w>
Sch ul
Bine înţeles</w>
su itable</w>
promov ează</w>
mon eda</w>
integr ată</w>
flu x
ameninţ are</w>
Manu el</w>
I li
1 20</w>
- making</w>
sp end</w>
rezolv ate</w>
offici ally</w>
controversi al</w>
ch osen</w>
bor n</w>
artic olului</w>
Laj cak</w>
Al zheimer</w>
5 .
sc ena</w>
satis fied</w>
rec ession</w>
ni er</w>
folo sirea</w>
dev a
dem isi
Georgi ev</w>
AL E</w>
su gesti
respect a</w>
progres ului</w>
ocup are</w>
mon um
graph ic</w>
et ă</w>
dov ezi</w>
Mal ta</w>
Litu ania</w>
Core ea</w>
199 0s</w>
- D
transpor turilor</w>
to x
raport oare</w>
pl ays</w>
ede i</w>
anticip ate</w>
put eţi</w>
pat rul
france z</w>
deci sion
appro ve</w>
Gro w
în fr
umanit are</w>
ro s</w>
rad ical</w>
pro pusă</w>
perspec tivele</w>
invol ves</w>
grat eful</w>
genoci de</w>
depend ence</w>
bel ow</w>
Sti pe</w>
val orilor</w>
scri so
observ at</w>
miniştri i</w>
it ect
ez ii</w>
ent ered</w>
comunit ară</w>
ch t</w>
ap plying</w>
Y emen</w>
Ver ts</w>
Rezul tat
P h
On ce</w>
împărtă ş
împrum ut</w>
tip uri</w>
prison ers</w>
pac ea</w>
obstac ole</w>
menţion ate</w>
intervi u</w>
in ul</w>
fir me</w>
do x</w>
di z
bloc k</w>
aut or</w>
ak is</w>
D ar
Co operation</w>
Ș i</w>
re ject</w>
r ată</w>
numero as
mas ac
fe el
ar ch</w>
addres sing</w>
H ea
Do ha</w>
9 .
înaint at</w>
re put
pos al</w>
ov o</w>
guarante eing</w>
fac ts</w>
electron ice</w>
d less</w>
confrun ta</w>
bu y</w>
as sist
P al
Ira k
Grow th</w>
B ab
supliment ară</w>
sfârș it</w>
r ace</w>
perio ade</w>
min ing</w>
exec utiv</w>
W TO</w>
ţin ând</w>
vi ziune</w>
spok en</w>
opini ile</w>
op tions</w>
mon edei</w>
minist erului</w>
independ entă</w>
caracter is
In terior</w>
împrumut uri</w>
Înal tului</w>
unil ater
priorită ţi</w>
liber a</w>
infl ation</w>
im peri
hea ds</w>
evalu ate</w>
e tic</w>
defini tion</w>
ch ain</w>
aut oritatea</w>
acţi unilor</w>
Vic e
6 .
sh aring</w>
mes ajul</w>
descoper it</w>
car rying</w>
IMM- uri</w>
7 00</w>
versi ties</w>
tehn ologi
surve illance</w>
sur vey</w>
si ze</w>
ren te</w>
public ul</w>
mari tim</w>
exist s</w>
aleg e</w>
specul ation</w>
sol d</w>
se ori</w>
profes sion
pro m</w>
particip ating</w>
ov eh
institu ții</w>
independ enţă</w>
func tion</w>
fav oriz
dro p</w>
dep end</w>
ch ea
atitu dinea</w>
answ ers</w>
S vet
S om
lu tion</w>
influ enţa</w>
consolid are</w>
benefici eze</w>
autonom y</w>
approxim ately</w>
alban eză</w>
Mart ti</w>
M at
I A</w>
D ay</w>
Buc kovski</w>
Belgrad ului</w>
Bar nier</w>
tă ții</w>
stu dies</w>
re place</w>
păr ă
organiz a</w>
exac er
T P</w>
S DP</w>
HI V</w>
Car ta</w>
Bel gia</w>
B G</w>
4 ,
ști in
val abil</w>
seri oasă</w>
requ ests</w>
rapoar tele</w>
no ro
eful ly</w>
celorl alte</w>
bon ds</w>
apropi erea</w>
El ect
signific ance</w>
gran ting</w>
g old</w>
fal se</w>
contr ar</w>
The ir</w>
Par liament
Cypri ots</w>
Agri culture</w>
st ati
s ation</w>
ren ce</w>
r in
ne u
ma ge</w>
institu ţie</w>
in form</w>
fronti eră</w>
fic ations</w>
experi enţă</w>
avi ation</w>
acoper ă</w>
Su edia</w>
Mul te</w>
Mosco w</w>
L oc
Ch an
înţel eg</w>
st an</w>
me at</w>
funcţion area</w>
deli ghted</w>
bio diversit
Serbiei- Muntenegrului</w>
4 3</w>
înch iderea</w>
vill age</w>
tit ul
pre feren
leg ală</w>
earth qu
bel ong
aş adar</w>
Q a
P M
vol ati
mo un
finan ced</w>
extre mis
de ep</w>
S per
Democra ţilor</w>
15 th</w>
îngrijor area</w>
un employed</w>
ri c</w>
președint ele</w>
pl ată</w>
ne y</w>
de sign
benefici ul</w>
al e
acqu is</w>
OM C</w>
O s
F BiH</w>
utili za</w>
televi sion</w>
spani ol
is on</w>
int oler
esti ci
dis pen
di vision</w>
criteri ilor</w>
can cel
at â
ari ties</w>
ajung em</w>
ţin em</w>
împied ica</w>
subi ecte</w>
soci o-
protec tion
pregăti ţi</w>
os ex
ol an
me ant</w>
low s</w>
institu irea</w>
even ing</w>
cre ative</w>
cl aimed</w>
aff ecting</w>
ab sen
Solid arity</w>
S ri</w>
Im plement
şi m</w>
utiliz ează</w>
trim ite</w>
sp read</w>
per sist
opin ii</w>
meto de</w>
menţin ere</w>
exam ine</w>
coop ereze</w>
aut oveh
Constitu tional</w>
4 6</w>
vrem uri</w>
un less</w>
protej eze</w>
ob ține</w>
mân d
mit em</w>
lea ds</w>
discrimin ării</w>
destin at</w>
cultur ală</w>
aplic ării</w>
aim ing</w>
acţion a</w>
Organiz aţiei</w>
sym bo
re mun
rapi de</w>
par ţial</w>
fu gi
experien ced</w>
document ele</w>
au r</w>
Struc tural</w>
Pol ish</w>
M ade
Isl anda</w>
Gaz prom</w>
încal că</w>
viz ite</w>
un itate</w>
susp ects</w>
s s
prof und</w>
occur red</w>
n ar
informa ţiilor</w>
c ore</w>
adres at</w>
Indu stri
F ili
Christi ans</w>
to -
road s</w>
ridic ată</w>
remun er
regar dless</w>
parlament ară</w>
oare lor</w>
incen di
el j
der og
de tal
comisi a</w>
cheltuiel i</w>
bănc ilor</w>
Pro f
Freed om</w>
Cet ăţ
Amon g</w>
AC TA</w>
tin i</w>
re move</w>
conflic telor</w>
coleg ul</w>
cap e</w>
b iser
at rag
Slovac ia</w>
SA A</w>
typ es</w>
sh ar
resid ents</w>
pre cau
person alului</w>
op pose</w>
im posibil</w>
ho st</w>
cri mă</w>
cre din
Tran sp
S iri
Lid erii</w>
D ur
D ac
ug g
subsidi arity</w>
reuni unii</w>
represent ation</w>
p i</w>
interi or</w>
him self</w>
ek om</w>
Ban ja</w>
uni versities</w>
sum a</w>
strân s</w>
stri ke</w>
s wi
ră z
en um
ea să</w>
constitu ţionale</w>
at ru</w>
am i
valu able</w>
teh nic</w>
simpli ficarea</w>
promis e</w>
produc tiv
pro ud</w>
ing er</w>
defin ite</w>
căl ăto
absol ute</w>
Cont rol</w>
Americ ii</w>
t ând</w>
reconcili ation</w>
pol lution</w>
nu -
nation als</w>
depă ș
cali fic
baz eze</w>
A y
4 -
ți onal</w>
măr f
indic at</w>
g ul</w>
exclu sion</w>
ch in
abord ări</w>
TP II</w>
T r
Schul z</w>
Qa eda</w>
J el
J a
îndepl ini
w ill
re lig
op ar
legisl at
i v
h uman
g ence</w>
dist or
amend ing</w>
Pro duc
Internaţi onală</w>
9 5</w>
încon jur
up coming</w>
sus țin</w>
obligatori e</w>
l ap
indic tees</w>
hear ing</w>
fi da</w>
eg ală</w>
educ ație</w>
de stabil
comunic area</w>
abst ained</w>
Lati n</w>
vân z
res cu
produc ţiei</w>
popul ației</w>
int ends</w>
extin de</w>
din a</w>
crimin als</w>
T S</w>
tranzi ţie</w>
structur i</w>
structur a</w>
speci es</w>
solu ții</w>
scă zute</w>
po fida</w>
medi e</w>
maj orită
it ar</w>
internaţi onali</w>
infr ing
il ed</w>
deput aţilor</w>
depl as
abor deze</w>
Naţi unilor</w>
Con sum
tre cut
sără cia</w>
happ ens</w>
govern ing</w>
foot ball</w>
eți -mi</w>
ceil alţi</w>
Tal at</w>
Syri a</w>
Oam enii</w>
M uz
Israel i</w>
8 5</w>
5 1</w>
înde lung
th o
ri s</w>
occu p
obic ei</w>
mis sing</w>
lat ter</w>
exprim a</w>
enti tled</w>
cli mat
ber cul
b ot
armat a</w>
Sistem ul</w>
In formation</w>
Co -
4 2</w>
şan sa</w>
vi de
ung er</w>
rezer ve</w>
recei ving</w>
raport orilor</w>
quar ters</w>
on ed</w>
nivel ului</w>
ic l
experien cing</w>
efec tiv</w>
detal ii</w>
condem n</w>
applic ations</w>
agen ţia</w>
volunt ary</w>
preocup ările</w>
integri ty</w>
evalu a</w>
ajut ăm</w>
UN ES
Democr acy</w>
trans l
simpl ă</w>
risc uri</w>
exemp le</w>
elector ală</w>
ea m</w>
ch e
bună starea</w>
întâlni ri</w>
suf fici
stoc k</w>
rel ativ</w>
pl ease</w>
p estici
negoti ated</w>
mulţum it</w>
fe ed</w>
edi ţie</w>
echit abil</w>
compet ent</w>
capac itate</w>
autorită ților</w>
S em
H P</w>
stake holders</w>
răspun suri</w>
qu anti
pursu e</w>
premi ul</w>
mobil izarea</w>
ma ţi</w>
gra de</w>
cro ată</w>
al co
P SD</w>
ţion area</w>
tu t</w>
tr u
tem ă</w>
realiz eze</w>
p tat</w>
or area</w>
ob struc
mân ă</w>
m inte</w>
invest ească</w>
fl e
finanţ elor</w>
fer mă</w>
e j
cap abilă</w>
believ ed</w>
ap ele</w>
ştiinţi fice</w>
produc ătorilor</w>
ish ment</w>
cruci ală</w>
aren t</w>
americ ane</w>
T in
Ţ ările</w>
întâmp in
îndo iel
wi de
susp ect
sin cer</w>
se ară</w>
ou b
k en</w>
interi mar</w>
exploat area</w>
contribut ing</w>
biom etri
as es</w>
M et
Davi d</w>
Auth ority</w>
în d
îmbunătăţi re</w>
ton nes</w>
tack ling</w>
stoc ks</w>
spec tr
sin cere</w>
mij loc</w>
medic amente</w>
bin even
UNES CO</w>
SI S</w>
ţi ală</w>
ver sion</w>
siguran ţei</w>
represent ing</w>
repet at</w>
ra id</w>
intim id
inten tions</w>
imedi ată</w>
im en
flexi bilitate</w>
fi as</w>
decision -making</w>
und ing</w>
tehn ică</w>
susp ended</w>
propos es</w>
post pon
lid erilor</w>
l o</w>
introdu se</w>
emphasi sed</w>
econom iilor</w>
alis mul</w>
Mi ros
3 7</w>
s- o</w>
re action</w>
ra il</w>
op un</w>
lear ning</w>
i ro
fore st</w>
euro zone</w>
e ous</w>
adop tării</w>
Premi erul</w>
P av
In stitu
C amp
îndeplin it</w>
wea k</w>
w ishes</w>
pu rile</w>
mode l
demonst ra
asoci ate</w>
argum ent
alis ing</w>
Poli ţia</w>
servici ul</w>
rezolu ția</w>
provoc ărilor</w>
promis es</w>
preven ire</w>
preved erile</w>
jo c</w>
garan tează</w>
encour aged</w>
deten tion</w>
car ne</w>
ast ly</w>
S N
R ug
I z
6 7</w>
5 m</w>
în ră
vâr sta</w>
scand al</w>
posibil ul</w>
play er</w>
penal ties</w>
i mage</w>
health y</w>
fi u</w>
defin e</w>
concentr at</w>
coe ziunea</w>
audi t</w>
anu ală</w>
ad vis
K r
în ghe
um ul</w>
tren d</w>
transfer ul</w>
tra fic</w>
sim t</w>
ref used</w>
it ary</w>
ing vis
in sistă</w>
do rește</w>
deose bire</w>
c .</w>
bo gă
aliz a</w>
Pac tul</w>
Lon dra</w>
G ul
ne o
dis posal</w>
depl ine</w>
av ing</w>
V as
T elec
Con go</w>
C â
vor be
transm is</w>
spea kers</w>
răsp und
re prezinte</w>
on at</w>
imag in
des fi
demo gra
control led</w>
aș adar</w>
t ărie</w>
se where</w>
prof its</w>
pre luat</w>
pescu itul</w>
mi stak
mar ine</w>
ic h
eng age</w>
endor sed</w>
eliber area</w>
defic itul</w>
cere rii</w>
c k
Miros lav</w>
Depart ment</w>
we alth</w>
sur ro
simpli fication</w>
ră ci
decizi ei</w>
cad rului</w>
ai ry</w>
I N
Environ ment</w>
Cost as</w>
B ah
îndeplin ite</w>
priv ința</w>
im pun
arrang ements</w>
Christo fias</w>
înţeleg ere</w>
venit urile</w>
threaten ed</w>
t ac
ro t
ro bu
negli j
ma p</w>
isi unea</w>
hom osex
fo li
chair man</w>
ce h
Tel ekom</w>
Poli tical</w>
viol enţei</w>
summit ului</w>
reac ţion
nam es</w>
lip sei</w>
la sting</w>
constan tly</w>
compar aţie</w>
atten d</w>
Sw it
H ad
înce perea</w>
spe ech
rela țiile</w>
re per
m- euro</w>
geograph ical</w>
dr ug
cr u
ch er</w>
c ord</w>
bal ances</w>
al b
I vica</w>
199 2-
în să
viit oarele</w>
regret abil</w>
organ ise</w>
op une</w>
il lu
gre ceşti</w>
e ties</w>
dri ving</w>
document ul</w>
candi d
broad cast
adverti sing</w>
activ itățile</w>
achiev ement</w>
Poli ti
Parti cip
B lic</w>
zer land</w>
to area</w>
te şte</w>
see kers</w>
provin cia</w>
mar king</w>
lo sing</w>
equ i
de ep
ban care</w>
ackno wledge</w>
Swit zerland</w>
Austr alia</w>
Asoci ere</w>
vir tu
tax ation</w>
st -
se şte</w>
princip ală</w>
on y</w>
mode lul</w>
macro -
educ ational</w>
eas ily</w>
ce alaltă</w>
bat tle</w>
ac tor</w>
Cul tural</w>
C F
199 8</w>
u sic</w>
trat ate</w>
speech es</w>
produc ători</w>
mobil isation</w>
ic ations</w>
fen omen</w>
confr on
cohe rent</w>
b ill</w>
all ing</w>
al ini
Mondi al</w>
Made ira</w>
G ames</w>
înfiinţ at</w>
îmbunătă ți</w>
uro s</w>
soci alist</w>
rezultat elor</w>
rezolu ții</w>
pre lung
plac ing</w>
in stru
ad ly</w>
Th en</w>
Parliament ary</w>
P P
Mic ha
Gre ens</w>
în l
urgen ță</w>
tax ă</w>
regul ated</w>
obi ectul</w>
multil ater
ini c</w>
incen tives</w>
gre ș
favor abil</w>
P ad
Jo int</w>
5 ,
ț ării</w>
știin ți
trag ic</w>
st er</w>
ro ute</w>
reven ue</w>
rest ore</w>
ou red</w>
je opar
ing ent</w>
con stitui</w>
as cun
aliment elor</w>
af la
4 7</w>
schim bu
ro mi</w>
r undă</w>
organiz aţie</w>
lun gi
detri mentul</w>
accent u
Sm all</w>
Com peti
1 7th</w>
transparen ţa</w>
tr as
s at
recuno ască</w>
neu tr
negoti ate</w>
fail ing</w>
esenți ale</w>
decl ine</w>
consider abile</w>
conn ected</w>
app eared</w>
Stabil izare</w>
Ar hi
wi desp
widesp read</w>
w age</w>
vo inţa</w>
tribun alului</w>
presu pu
par am
ori cărei</w>
olo giei</w>
munteneg re
four th</w>
f as
caut ă</w>
baz ele</w>
Sprij in</w>
Of fici
J ess
H el
Bar cel
wi der</w>
vecin ii</w>
tem per
se iz
sanc ţiuni</w>
mani eră</w>
fi es</w>
dispen s
condi ţia</w>
ar unc
ar dian</w>
D ou
Consid er
A SA</w>
teritori ale</w>
schim be</w>
per cep
min es</w>
mat ch</w>
gu il
gener ations</w>
fa ză</w>
dem n</w>
bri ef
bl u
ann is</w>
L az
Ir anian</w>
ş co
ten der</w>
t ân
susțin ut</w>
sel l</w>
ra v
proce ed</w>
furniz ate</w>
fiec ă
echilibr at</w>
dro p
d airy</w>
commun ist</w>
catastro f
St and
Peter sen</w>
Naţi onală</w>
L astly</w>
utiliz eze</w>
uri aş
subl inia</w>
studi i</w>
slab e</w>
situ ației</w>
religi oasă</w>
rel atively</w>
pro fund
mas sac
grani ţa</w>
found ations</w>
follow s</w>
fa st</w>
exclu sive</w>
el sewhere</w>
dov ede
compl ement
benefici al</w>
bac ked</w>
as sume</w>
af ri
ad aug
Ex tin
Com m
spaţi ul</w>
re sts</w>
pos sibilities</w>
po artă</w>
min ent</w>
gân desc</w>
et c.</w>
det ail</w>
argum ents</w>
Est onia</w>
încred erii</w>
în alte</w>
uni que</w>
sprijin ului</w>
scand al
pol ls</w>
pl en</w>
phen omen
intellec tual</w>
exp ects</w>
en cies</w>
coali ţie</w>
ary- General</w>
abor dează</w>
Transp aren
N E</w>
Barcel ona</w>
Ţ ara</w>
w er</w>
vizi unea</w>
su pre
s and
pro of</w>
prez enţi</w>
par curs</w>
materi ale</w>
loc ated</w>
institu țiilor</w>
incid ents</w>
câ ști
V et
In dependent</w>
C an</w>
3 8</w>
înfi inț
small er</w>
sent ence</w>
scur tă</w>
sal ută</w>
re alitatea</w>
pie țele</w>
obţin ute</w>
neighbour hood</w>
ing ness</w>
great ly</w>
g es</w>
ex ag
asigur are</w>
ab e</w>
Secret ary-General</w>
Ră zbo
Em pl
un te
ti an</w>
tho dox</w>
low -
less ons</w>
exprim ate</w>
el ul</w>
discut ă</w>
concentr a</w>
care ful</w>
cal cul</w>
adap t</w>
Rob ert</w>
L o
Israel ul</w>
Intern al</w>
E P
6 ,
tran sit</w>
ten sions</w>
stabil eşte</w>
s la
respect ării</w>
refer ring</w>
proces ele</w>
prepar ation</w>
pozi ție</w>
person nel</w>
enab ling</w>
cere ri</w>
Has ani</w>
trag edi
promov are</w>
o co
inform al</w>
indic ators</w>
et ele</w>
en- Petersen</w>
echi pă</w>
credi bilitatea</w>
adres ate</w>
Jess en-Petersen</w>
Drep turilor</w>
încăl zi
will ingness</w>
succe eded</w>
stitut es</w>
secret arul</w>
oraş e</w>
econom ically</w>
deci siv</w>
confrun tat</w>
bureaucr acy</w>
aprop ie</w>
aj ic</w>
aint s</w>
Nob el</w>
român i</w>
ris curile</w>
poore st</w>
politici an</w>
ph arm
ocu pe</w>
itali an</w>
for meze</w>
etn ică</w>
electri c</w>
draf ted</w>
de fe
aţi onale</w>
as sure</w>
am ă</w>
V l
C at
ți ona</w>
two- day</w>
opo ulos</w>
on ic</w>
olog ie</w>
ma j</w>
k u</w>
in dispens
g ame</w>
famil ii</w>
expen sive</w>
excep tional</w>
er o
consolid ăm</w>
W I
Pap er</w>
sit ă</w>
provoc ate</w>
pres cri
num e</w>
ist orice</w>
ign ore</w>
democr ati
de şe
cauz ate</w>
bir th</w>
an elor</w>
Pri v
19 th</w>
încer care</w>
se diul</w>
phenomen on</w>
organ ism</w>
jo ur
indic ted</w>
importan ţi</w>
funcțion area</w>
farm ing</w>
famili ilor</w>
facilit area</w>
echip ei</w>
e pi
comun ităţi</w>
angaj amente</w>
Rug ova</w>
1992- 1995</w>
ându- şi</w>
v il
und oub
turis mul</w>
subsidi ar
strugg le</w>
ser ă</w>
s low</w>
ob tained</w>
hab it
fă când</w>
expan sion</w>
bă tut</w>
bre a
Tou rism</w>
Institut ul</w>
D ani
C op
Austri an</w>
4 1</w>
ș an
wh ilst</w>
sfârș itul</w>
remov ed</w>
put erii</w>
perf ect
on i</w>
olog ice</w>
modern izarea</w>
instrum entelor</w>
imb ab
grani ţelor</w>
electri că</w>
atac urile</w>
acţion ăm</w>
acuz aţi</w>
TV A</w>
So vi
Permit eţi-mi</w>
M ust
L eh
J ust</w>
Car la</w>
A k
20 50</w>
10 -
Ş eful</w>
sexu ală</w>
s y</w>
potenţi alul</w>
gi es</w>
fin alizarea</w>
es cal
credi ble</w>
concentr ate</w>
Sci ence</w>
val oro
trans atlantic</w>
st al
sensi bil
s ending</w>
lucr ările</w>
kno ws</w>
dur abil</w>
distri but
că toare</w>
cum p
co vering</w>
Organiz aţia</w>
C a
199 6</w>
ști lor</w>
hi b
educ aţia</w>
dis păr
c le</w>
av eţi</w>
amb elor</w>
Fer re
7 .
şan se</w>
înch id
ându- i</w>
satis fă
produc ing</w>
prevă zut</w>
mun i
experi enţa</w>
di stru
compani ed</w>
ban k
an der</w>
ambi tion</w>
ad in
S ig
Or thodox</w>
Micha el</w>
Educ ation</w>
Declar aţii</w>
D unării</w>
tur ning</w>
tel e
ta ți</w>
stre ets</w>
sign s</w>
on iei</w>
istori e</w>
en ship</w>
deva stat
consid ers</w>
air lines</w>
ag ă</w>
ad au
acţi unea</w>
Ombuds man
împied ică</w>
vot are</w>
val ent</w>
tri parti
tin ere
t una</w>
so ft</w>
folo sim</w>
coun cil</w>
corup ţia</w>
ci fre
arăt a</w>
acuz aţii</w>
Siri a</w>
O z
B or
în gro
un ite</w>
sec ul
lac tate</w>
integr al</w>
form ed</w>
de struction</w>
concuren ţă</w>
ativ ei</w>
Dav ut
Apăr ării</w>
ş a</w>
vot ez</w>
ul u
satisfac tory</w>
pro spec
pre ședin
ne -au</w>
multi -
automob ile</w>
atlan tică</w>
at edly</w>
ar ded</w>
Mus lim
A ici</w>
v ast</w>
v ara</w>
radio active</w>
per cent
jum ătatea</w>
iz ată</w>
guvernan ță</w>
evalu ări</w>
endor se</w>
as ing</w>
arm ată</w>
tot alit
streng th</w>
st ad
refugi aţilor</w>
rec entă</w>
pregăti te</w>
pre ia</w>
menţion ează</w>
g ol
fair ly</w>
du mul</w>
dev in</w>
dat orează</w>
ch im
ap a</w>
amen inț
altern ativi</w>
aff ects</w>
ac tele</w>
a h</w>
S ă
Pl us</w>
La ura</w>
Internaţi onale</w>
Du bl
D E
țin ut</w>
înch ise</w>
împotri vă</w>
transp un
stad t</w>
s w
reper cu
reglement ările</w>
refugi aţi</w>
presi e</w>
hi d
form ele</w>
drug s</w>
capac ităţii</w>
Z imbab
VM RO
Mexic o</w>
EU FOR</w>
ve ți</w>
propor tion</w>
pen ing</w>
nevo ilor</w>
f um
enti ally</w>
comerț ul</w>
al ți</w>
E very</w>
ş ii</w>
v ered</w>
undoub tedly</w>
under taken</w>
trag edy</w>
reîn no
r o</w>
pier derea</w>
orit ar</w>
ol a</w>
n -
k g</w>
ext ending</w>
doub ts</w>
dezbat em</w>
declar aţiile</w>
dec eni
bu z
bri ef</w>
arest are</w>
aleg ătorii</w>
Y es</w>
Sloveni an</w>
Pro curo
J os
înţeleg e</w>
în dreaptă</w>
wide ly</w>
transp lan
r â
maghi ară</w>
legitim acy</w>
industri ală</w>
i rile</w>
hou ses</w>
g a</w>
concent rează</w>
con sor
combat erii</w>
biro cr
a viz
La w</w>
H on
Ali anţa</w>
199 3</w>
între rupt</w>
îmbunătăţ ească</w>
wat ers</w>
priv ată</w>
pre lungi
mov ed</w>
macedon eni</w>
intensi fice</w>
grani ţele</w>
discu ție</w>
de als</w>
construc tiv</w>
con tained</w>
cl ean</w>
cau sing</w>
PA SO
E ver
Del eg
6 3</w>
z ător</w>
strân se</w>
se at</w>
pă rea</w>
pro viz
ol e
modern isation</w>
intensi ficarea</w>
conflic te</w>
co sti
S WI
Portu gu
Bori sov</w>
întreg ime</w>
tro u
t ability</w>
pre serve</w>
ph one</w>
num irea</w>
eventu ally</w>
eth eless</w>
ec are</w>
critic i</w>
consec ință</w>
b et</w>
armon izarea</w>
agen ţiei</w>
abord at</w>
PASO K</w>
I S</w>
F em
Davut oglu</w>
3 9</w>
11 th</w>
încălc ări</w>
un its</w>
situ at</w>
reduc erii</w>
preven tive</w>
inv ited</w>
ez u
ed ă</w>
declar ations</w>
cri mele</w>
au d</w>
al- Qaeda</w>
ach ed</w>
ac companied</w>
T aj
Mosco va</w>
G ord
tre aties</w>
nam ed</w>
apăr a</w>
Lab our</w>
F ish
întârzi ere</w>
zon elor</w>
v ar
uș or</w>
un ce</w>
t ol
report ing</w>
propri e</w>
oper ator</w>
iz eze</w>
i po
cou ple</w>
bre ak
afac erile</w>
ace eași</w>
abs ence</w>
SWI FT</w>
Fo stul</w>
Comit etul</w>
ându- le</w>
simplif y</w>
re sum
rat ing
pes car
mediteran e
maint ained</w>
er ta</w>
dra w
comis arului</w>
collabor ation</w>
amen ded</w>
ali şti</w>
afe rent</w>
accent ul</w>
Commission ers</w>
tiv ul</w>
sănătă ții</w>
spaniol ă</w>
res or
qu arter</w>
mis ă</w>
log ic</w>
ir regul
gra v
eviden ți
dee ply</w>
con stitute</w>
wel comes</w>
urmă reşte</w>
suffici ently</w>
privati zare</w>
pacien ţilor</w>
p alestini
n ați
in stability</w>
fre ely</w>
environ ment
despă gu
avanta j</w>
au stri
alis mului</w>
al ității</w>
Vi en
V ol
P atri
Mo star</w>
Ever y
A ţi</w>
-D PM
spun ă</w>
s eas
permit em</w>
pedeap sa</w>
l ying</w>
j ected</w>
gaz elor</w>
draf ting</w>
caz urilor</w>
asist enţei</w>
ac tors</w>
Jo hn</w>
J our
Investi ţii</w>
D us
Alex ander</w>
tu bercul
stabil ă</w>
inter im</w>
indic tment</w>
im mun
ic k</w>
dea ths</w>
dat or
as sin
arg ă</w>
agen ţii</w>
Progres s</w>
E B
societă ții</w>
sl ăb
protec ţion
p si
mij locul</w>
lup tei</w>
import urile</w>
citiz enship</w>
aplic at</w>
D a</w>
Cha ir
ţion ate</w>
ţ int
tis ment</w>
tex ts</w>
sy mp
salari es</w>
rezol ve</w>
rati fied</w>
per pe
patrul ea</w>
mand atory</w>
list en</w>
fer ic
em er
du re
consolid ată</w>
confid ent</w>
confer inţa</w>
con cur
coment arii</w>
benefici ile</w>
advant ages</w>
VMRO -DPM
P utin</w>
K ab
C anc
ș ase</w>
soci eties</w>
preziden ţiale</w>
gre acă</w>
buget e</w>
ali ştilor</w>
Mar tin</w>
J urn
Dubl in</w>
Cetăţ enii</w>
z -
vis its</w>
tu red</w>
ter ri
st ory</w>
sp ring</w>
res ear
pos sibly</w>
micro -
m eci
hea ded</w>
ek u</w>
demonstr a</w>
chec k</w>
bun a</w>
bu curo
b ar</w>
ap ei</w>
am an</w>
Pac tului</w>
CN N</w>
C răci
B og
sup posed</w>
spon s
repe atedly</w>
pen ale</w>
noro c</w>
l ag
int on</w>
feat ures</w>
dur a</w>
cere rile</w>
ap ers</w>
ag end
J ose</w>
the red</w>
regul ilor</w>
refl ected</w>
princip alii</w>
pregăti re</w>
preciz at</w>
leg ile</w>
inten sive</w>
fiecă rei</w>
eg alităţii</w>
echilibr ată</w>
cuv intele</w>
b i</w>
ambi gu
ac cur
Taiw an</w>
H ere</w>
înt ări
vot ăm</w>
under stood</w>
transfer red</w>
sec olul</w>
scri e</w>
s ele</w>
matern ity</w>
limit at</w>
ju dge</w>
i şti</w>
dre w</w>
document elor</w>
dela ys</w>
Organiz ației</w>
Josi povic</w>
Din kic</w>
De ut
DS S</w>
încuraj area</w>
super visory</w>
scu ti
sal es</w>
rela x
priv itor</w>
pet ro
om berg</w>
inv itation</w>
i red</w>
fra u
est ing</w>
determin area</w>
destro yed</w>
debat ing</w>
concre t</w>
afect ată</w>
Jour n
Cer cet
Centr ale</w>
C up</w>
B et
what ever</w>
mor atori
larg er</w>
inten ţia</w>
fin ale</w>
dispozi ție</w>
câştig a</w>
com mod
ap s</w>
R em
Iran ul</w>
198 9</w>
verdic t</w>
t ul
regener abilă</w>
prim ului</w>
per secut
modern e</w>
institu ţionale</w>
import ed</w>
implic are</w>
grani ţei</w>
fronti erele</w>
fem ale</w>
echilib rul</w>
cl asi
cetăţ ean</w>
c ea
adevăr ată</w>
S S</w>
Pad dy</w>
O t
F TA</w>
Cro at</w>
2 8th</w>
şed inţe</w>
venit urilor</w>
spori te</w>
spaţi u</w>
sou th</w>
r us</w>
passeng er</w>
organiz aţiilor</w>
high lights</w>
grij ă</w>
extin derii</w>
din i</w>
contra st</w>
contr av
con tain</w>
comun ităţilor</w>
br an
aloc area</w>
Portugu ese</w>
Pak ist
Ol anda</w>
Ja ap</w>
Comit etului</w>
y n
u b
tic ally</w>
ri go
retro spec
resp in
realiz ăm</w>
ofer ind</w>
mark eting</w>
leg ilor</w>
l ey</w>
hon est</w>
doved i</w>
con sent</w>
comerț ului</w>
Medi apo
Lan ka</w>
Fi ecare</w>
Cooper area</w>
Blo omberg</w>
y ers</w>
tim ă</w>
s cre
retur ned</w>
redund ant</w>
ra m</w>
nerăb dare</w>
ne ze</w>
indu- se</w>
inculp aţi</w>
finan ţării</w>
feel ing</w>
f lows</w>
extraordin ary</w>
echip amente</w>
cred itelor</w>
cal end
arbit r
alleg edly</w>
a z</w>
Medi a</w>
Fu k
EC B</w>
Bec ause</w>
Alek sand
susp en
stud ent</w>
pi ece</w>
inten se</w>
direc ted</w>
def end
car ri
aştep ta</w>
acknowled ged</w>
Zimbab we</w>
Turk men
L eft</w>
Eur o</w>
En gl
we b</w>
sublini em</w>
sim bo
rema ined</w>
rel ates</w>
profes or</w>
pro pag
n evertheless</w>
meto dă</w>
law makers</w>
jeopar dis
inov ării</w>
du cerea</w>
demo graphic</w>
antrepre no
affor d</w>
Olymp ics</w>
N ici</w>
I l
16 th</w>
şe şte</w>
vi ața</w>
supravie ţu
sexu ale</w>
ent uzi
cipri ot
atlan tice</w>
ari ans</w>
VMRO-DPM NE</w>
Paci fic</w>
Dra sk
week end</w>
temper at
t orului</w>
salari ilor</w>
s at</w>
r an</w>
provin cie</w>
ov ac</w>
menţin ă</w>
fr uc
ez ilor</w>
continu at</w>
ar ta</w>
appreci ate</w>
N et
Cont act</w>
Cl inton</w>
Ş tim</w>
înl ătur
v ess
tem a</w>
r ach
produc ție</w>
perform an
or ă</w>
oblig ed</w>
h in
frec vent</w>
f ers</w>
comisi i</w>
bulgar i</w>
ben e
agricul torii</w>
abord ate</w>
a e
Dnev nik</w>
volati l
ut most</w>
s mar
re act</w>
popul ations</w>
pen al</w>
h o</w>
enter ing</w>
employ ers</w>
des centr
deoseb i</w>
de ad</w>
construc tivă</w>
ch ează</w>
capit ala</w>
ban ilor</w>
arti col</w>
ap ar</w>
S ul
R os
P N
Mil o</w>
Al te</w>
6 2</w>
wor rying</w>
te red</w>
tax elor</w>
ridic a</w>
re public
quali fied</w>
lum ina</w>
insul a</w>
impres sion</w>
implic a</w>
g er</w>
aţi on
agre es</w>
Nu mai</w>
N ig
Drask ovic</w>
5 4</w>
încuraj ează</w>
vre o</w>
vot eze</w>
vi able</w>
v adă</w>
trat atului</w>
trat amentul</w>
societă ţi</w>
short -term</w>
reven ues</w>
pre deces
pol l
in side</w>
form ată</w>
em it
dec entr
cre ște</w>
cov ers</w>
control ului</w>
consolid at</w>
comm it</w>
c ited</w>
and ă</w>
Vi ol
Lat via</w>
Ab out</w>
ămân tul</w>
termen ul</w>
suspec t</w>
restric tive</w>
preced ented</w>
particip ated</w>
num elui</w>
locu itori</w>
li qu
disput es</w>
de seori</w>
d ent</w>
competi tivă</w>
compet ences</w>
collap se</w>
c ast</w>
Mi ha
susţin ă</w>
sha res</w>
scriso are</w>
refug ee</w>
purtă torul</w>
prezent area</w>
permit eţi-mi</w>
o so
miţ ând</w>
mili on</w>
mean ing</w>
immun ity</w>
favor abile</w>
des curaj
defic its</w>
bun urilor</w>
asp ira
ani ans</w>
ambiţi os</w>
ajut at</w>
a side</w>
PIB -ul</w>
Muslim s</w>
ú n</w>
înch is</w>
în cad
sub stance</w>
ro ots</w>
regret table</w>
redres area</w>
re ment</w>
par all
ong st</w>
on ing</w>
lu ând</w>
fer m
clădi rilor</w>
asp ectul</w>
am ongst</w>
am est
W il
V is
Pet ro
urmări t</w>
u -
suveran itatea</w>
solid ă</w>
se arch</w>
re e</w>
profund ă</w>
manufactu rers</w>
inter v
in titul
fi f
famil ia</w>
f unded</w>
discrimin area</w>
dis curs</w>
competen ţe</w>
categ orii</w>
asum at</w>
Num ărul</w>
Barro t</w>
5 6</w>
întâmp le</w>
închei ate</w>
un precedented</w>
ul i
supliment ar</w>
spori t</w>
sin cer
reprezent ând</w>
prim ă
percent age</w>
lup te</w>
lim itate</w>
la d</w>
ie ş
homosex u
gro w</w>
gre enh
d ure</w>
cotidi anul</w>
compl aints</w>
ci f
at in
Pre z
solic ite</w>
ro -
pierd eri</w>
perio adei</w>
obstac le</w>
mecanis mele</w>
iz buc
ileg ali</w>
disponibil iz
cust om
concer t</w>
co- operate</w>
ass embly</w>
Stef an</w>
R A
Mar ina</w>
I bra
Ge o
întreprin se</w>
întreg ului</w>
á n</w>
w estern</w>
transparen te</w>
transform a</w>
respon ding</w>
protej ate</w>
premi er</w>
p raised</w>
p ill
offic es</w>
investig ate</w>
invest ed</w>
human ity</w>
extin s</w>
emoran dum</w>
consum ul</w>
boo ks</w>
as h</w>
Fuk ush
Econom y</w>
A j
13 th</w>
è s</w>
w ages</w>
to arelor</w>
securi tății</w>
sarcin i</w>
proces sing</w>
nem ul
invest ing</w>
indic ate</w>
dra g</w>
dis per
dep ind</w>
de grad
chec ks</w>
candi daţi</w>
busin ess
bloc ked</w>
Vien na</w>
Meh met</w>
Con gres
ţ inu
şcol i</w>
încân tată</w>
z o
transfrontali eră</w>
sof tw
rec ti
pă tr
multi anual</w>
lin ii</w>
jo int
j ik
extin să</w>
elab oreze</w>
dez i</w>
cif re</w>
arest aţi</w>
apar t</w>
a ie</w>
Sp lit</w>
S ur
Per s
Fukush ima</w>
C ere
14 th</w>
vig il
tou rist</w>
ter i</w>
t ine</w>
susp ected</w>
some what</w>
rescu e</w>
present ation</w>
me argă</w>
h our</w>
garan ţii</w>
exten sive</w>
dynam ic</w>
counter fe
correc tly</w>
conving erea</w>
contribuabil ilor</w>
comun itate</w>
clari fy</w>
cl in
avanta je</w>
Zi ua</w>
Servic iului</w>
Pu bl
Gre eks</w>
Christ mas</w>
Ac ces
îmbunătăţi t</w>
ul a</w>
redund an
re source</w>
priv esc</w>
pe di
occa sions</w>
journ alist</w>
inov area</w>
impre sia</w>
focu sing</w>
fin ished</w>
explic it</w>
element ele</w>
cut ting</w>
cuprinz ător</w>
ch i
afirm ând</w>
Mediapo ol</w>
Intern e</w>
IMM- urile</w>
Armen ia</w>
uni versity</w>
susţin ută</w>
st i</w>
sig nat
practic ile</w>
pati ent</w>
natur ally</w>
man n</w>
macedon ene</w>
in sufficient</w>
fa ith</w>
exprim ă</w>
exacer b
aut oritate</w>
ativ elor</w>
acți unile</w>
B ug
Ac tu
în deosebi</w>
stimul ente</w>
recunos c</w>
prim ii</w>
multi ple</w>
insul ei</w>
iniți ativa</w>
in no
hou se
greş it</w>
grat u
er area</w>
en ie</w>
anteri oară</w>
Comun ităţii</w>
t ough</w>
sch e</w>
phys ical</w>
perman entă</w>
modific ările</w>
lăs at</w>
imag inea</w>
im p
excep ţia</w>
em isă</w>
ass assin
W al
Sus ţin</w>
Mu ham
under mine</w>
um n</w>
specul ative</w>
secon dly</w>
respect at</w>
organ e</w>
mecanis mul</w>
manag ing</w>
loc ului</w>
l eng
kil ling</w>
incre di
hotărâ re</w>
greenh ouse</w>
fot ogra
et nic</w>
em o
effici ently</w>
combin ed</w>
bu s</w>
as s</w>
acuz are</w>
W ill</w>
Să ptămân
Sovi et</w>
Fish eries</w>
Dani el</w>
C el
ș tin
ş ten
vi i</w>
sp ar
rev ised</w>
re medi
pri me
preț urilor</w>
prez int</w>
prag ul</w>
me tri</w>
kosov are</w>
investig ations</w>
clos ing</w>
chap ter</w>
be aring</w>
am ing</w>
acuz aţiile</w>
Ver h
Secon d</w>
Co he
vie ții</w>
ti gh
ri c
r us
p ra
nord -
ner ships</w>
mi ș
hel ps</w>
f in</w>
en ţilor</w>
elj ko</w>
earthqu ake</w>
d jan</w>
con ces
alloc ation</w>
acqu is
acces sible</w>
Vi ena</w>
N ațiunilor</w>
G ra
Empl oyment</w>
Ci oco
îngrijor ătoare</w>
tim ely</w>
ti s</w>
sent en
se x</w>
repe ated</w>
ren um
read iness</w>
re tain</w>
pră bu
propun erilor</w>
m .</w>
fall s</w>
deschid ere</w>
costi sit
clas s</w>
St av
M en
Cioco iu</w>
C eku</w>
tri p</w>
transi tional</w>
ren tly</w>
organiz eze</w>
me ets</w>
fac to</w>
f res
ey es</w>
e ul</w>
dezamă g
condu că</w>
condem ned</w>
co de</w>
cap abili</w>
ati a</w>
ader at</w>
ac cent</w>
L e</w>
Ech ip
în su
îm bătrân
vic tim</w>
tur ing</w>
lim bă</w>
li bi
g lad</w>
g ata</w>
ef ectelor</w>
diplom at</w>
d an
crimin ale</w>
consolid ării</w>
bureaucr atic</w>
beli ef</w>
ad m
Servic es</w>
R econ
Ori ce</w>
H ur
C HP</w>
Aș adar</w>
vot urilor</w>
tel ls</w>
sol ved</w>
remar cat</w>
plă tit</w>
pic ture</w>
număr at</w>
mun cit
mo ther</w>
it ems</w>
h arm
found ation</w>
fore sts</w>
ecolog ic</w>
căl ători</w>
communic ations</w>
cifr ă</w>
cap abile</w>
bro ader</w>
ac tori</w>
Z aman</w>
SE A
Kos or</w>
C up
An te</w>
în ş
refu ză</w>
preved eri</w>
poten tially</w>
pasag eri</w>
necess ity</w>
deni ed</w>
b ute</w>
accid ents</w>
Vu janovic</w>
S cot
A po
8 .
ș i-au</w>
stabil ită</w>
rezolu ției</w>
rapi dly</w>
put s</w>
o şi</w>
irregul arities</w>
iniți ative</w>
desfăşur are</w>
datori ilor</w>
cul tiv
competitiv itate</w>
ari at</w>
ambi tions</w>
R en
For um</w>
Discu ţiile</w>
Arhi vă</w>
ut ă
tangi ble</w>
su pus</w>
sen sible</w>
satisfac tion</w>
salari ile</w>
s low
pur tate</w>
mu sic</w>
la g</w>
joint ly</w>
h um
deșe urilor</w>
aj ung</w>
Must af
Ini ţi
Alex and
Al ber
vân zarea</w>
s ake</w>
respect ăm</w>
prepar ations</w>
ow ners</w>
ong side</w>
istori că</w>
h ect
folos ită</w>
conflic tele</w>
com ings</w>
categ ory</w>
af raid</w>
Spea king</w>
R ex
M s</w>
Lib yan</w>
Ch il
Ad ministr
25 th</w>
ţ ului</w>
w ai
utiliz ată</w>
urg ency</w>
rel aţia</w>
plăt i</w>
ow nership</w>
monet ară</w>
in direct</w>
de port
consec ințele</w>
ch -
applic able</w>
analy st</w>
americ ani</w>
achiev ements</w>
Nor thern</w>
Iv an
C ot
At ât</w>
un certainty</w>
ug en</w>
tre cem</w>
th res
r amb
pre domin
parlament ele</w>
pach etului</w>
op erează</w>
muntenegre an</w>
mom ent
locu iesc</w>
interz ice</w>
internation ally</w>
guvernan ța</w>
fa x</w>
exist ent</w>
dol ari</w>
dezastr e</w>
certitu dine</w>
ar gue</w>
V es
N ea
Lat ină</w>
Fo und
încep em</w>
z bor
ur meze</w>
short comings</w>
regar ded</w>
re ţele</w>
lin gu
en vis
emb ar
discut ate</w>
coordin ate</w>
bri dge</w>
b s</w>
R eding</w>
I II</w>
uc is</w>
thre at
terro rists</w>
sunte ţi</w>
st âr
resp ects</w>
reac ţie</w>
păstr a</w>
op us</w>
minist eri
limit ată</w>
initi ally</w>
ferovi ar</w>
f low</w>
Adri atic</w>
6 6</w>
într uni
vit ală</w>
person alul</w>
ob o
macro economic</w>
g un
for cing</w>
conver gen
condu se</w>
compet e</w>
activ ități</w>
Președin ția</w>
N eigh
In forma
Direc tor
reuni uni</w>
operaţi uni</w>
influ enţă</w>
ex pul
et t
desfi inţ
competitiv ităţii</w>
bol i</w>
ace u
M lad
Dec i</w>
Ad un
3 0th</w>
Î i</w>
usu al</w>
urg ing</w>
tri gg
tor ture</w>
sol ely</w>
pro secution</w>
pro cent</w>
ot ing</w>
indi viz
hea ding</w>
eş ec
depă şi</w>
d or</w>
ch est
au gh
arti fici
alist ul</w>
air port</w>
Y outh</w>
Iv anov</w>
E f
Confer inţa</w>
şti rilor</w>
întreb ării</w>
în săr
tre acă</w>
to w
ter n</w>
solu ţia</w>
reg iz
re par
port ugh
newsp aper</w>
n aştere</w>
lin ie</w>
ga thered</w>
deleg ations</w>
coun ter</w>
comand ant</w>
asigur at</w>
actu alei</w>
V lad
Per haps</w>
Mic ro
Bl erta</w>
Bak oy
urm ător</w>
regim es</w>
quic k</w>
priv acy</w>
pl ata</w>
irlan dez</w>
introdu că</w>
d ui</w>
d ated</w>
camp ania</w>
arti sts</w>
annu ally</w>
ad ol
Y ear</w>
Neigh bour
Cro ația</w>
w ine</w>
viol enţa</w>
st ării</w>
separ at</w>
scă derea</w>
produc ția</w>
mar ile</w>
ir ing</w>
event ual</w>
em ed</w>
cri ma</w>
bo y
Rezolu ţia</w>
M ot
Found ation</w>
F ace
Centr ului</w>
întreb ările</w>
însăr cin
vis itors</w>
trup ele</w>
top ics</w>
ti cii</w>
rezer vă</w>
popul ația</w>
particip are</w>
ow ner</w>
loo ks</w>
intellig ence</w>
gener alul</w>
fisher men</w>
er -
dis covered</w>
can e</w>
ca p</w>
agricul torilor</w>
adau g</w>
Ven ezu
UN DP</w>
Ti bet
Th ro
Leg ea</w>
E ar
Cohe sion</w>
z ili
vo dina</w>
vo ce</w>
v est</w>
surs ele</w>
support ers</w>
st ages</w>
sp ite</w>
se ara</w>
privi m</w>
pill ar</w>
mobil itate</w>
matern itate</w>
kin ds</w>
de serve</w>
comunic at</w>
co al</w>
clădi ri</w>
cere m</w>
c iting</w>
avantaj ele</w>
autorită ţi</w>
assess ments</w>
Sper ăm</w>
S F</w>
t z</w>
sh ing</w>
refl ects</w>
fore most</w>
es a</w>
e ș
declan ş
d n</w>
ath y</w>
Gol d
Eur Ac
încuraj eze</w>
vre odată</w>
vorb itor</w>
un itatea</w>
tal ked</w>
suede ză</w>
rat ei</w>
păr ăs
om et
massac re</w>
in ju
im i</w>
ce ară</w>
brut al</w>
ale şi</w>
ac a</w>
S everal</w>
J os</w>
Ira qi</w>
F oni
- l</w>
înconjur ător</w>
îmbunătăţi ri</w>
organiz aţiei</w>
organis mele</w>
institu ţional</w>
im ob
gr ants</w>
exper ţii</w>
dis pune</w>
cont acts</w>
consult ations</w>
ch ers</w>
boo sting</w>
at orului</w>
5 3</w>
3 -
tion ary</w>
re cep
pre vizi
pos ite</w>
ni şte</w>
municip ality</w>
est y</w>
concuren ţa</w>
adv anced</w>
ad mit</w>
a sion</w>
C lu
quot as</w>
prov en</w>
proces e</w>
paş apo
mer g</w>
maxim ă</w>
il ul</w>
ess entially</w>
econom ici</w>
conven tion</w>
constitu ţie</w>
announc ement</w>
afect aţi</w>
Ti bet</w>
Pro gre
N e-
Ko z
K lau
Gu ardian</w>
Glob al</w>
Camp ania</w>
între agă</w>
w ro
viol enței</w>
vi sible</w>
un necessary</w>
tre ptat</w>
reglement ărilor</w>
preţ uri</w>
no on</w>
n ă
lo vit</w>
inclu sive</w>
inaccept abilă</w>
importan tly</w>
hotărâ rea</w>
expres sing</w>
export urile</w>
criz elor</w>
cre ates</w>
cost ul</w>
cop ilului</w>
conver gence</w>
complex e</w>
bur g</w>
anivers are</w>
ambl ing</w>
L up
F unc
Cipr ul</w>
Air lines</w>
2 3rd</w>
în vecin
uni unea</w>
ugh ly</w>
trat atul</w>
mobil itatea</w>
fo c
exclu de</w>
en vi
echit abile</w>
dimin u
Transparen cy</w>
Sy stem</w>
Po t</w>
Hea ds</w>
H ome</w>
199 7</w>
vo ie</w>
under line</w>
simil ară</w>
si ţi</w>
reven i</w>
prospec t</w>
propri ilor</w>
po ll</w>
parall el</w>
no -
k -
harmon ised</w>
for ţe</w>
dezvolt at</w>
compati ble</w>
co inci
co astă</w>
back ground</w>
authori sation</w>
ar ate</w>
an ța</w>
adin aj</w>
L V
Har adinaj</w>
D un
18 th</w>
ţ ite</w>
întâln i</w>
ve to</w>
tax ele</w>
rel ans
reiter at</w>
rein force</w>
part nerships</w>
pa şi</w>
ol elor</w>
nev inov
is tics</w>
in adequate</w>
im balances</w>
identi ficarea</w>
frag ile</w>
efic ac
az z</w>
U I</w>
Mer co
Canc ún</w>
între rup
thoro ugh</w>
răspund ere</w>
repet ate</w>
re unit</w>
re placed</w>
obiectiv ului</w>
limit ele</w>
in vit</w>
gestion ării</w>
fil me</w>
f f</w>
expen se</w>
eng agement</w>
el der
cooper a</w>
c ari
bulg are</w>
a sigur</w>
Rex he
D on
D F</w>
Apo i</w>
2 2nd</w>
12 .
ți onală</w>
ți al</w>
witn ess
v -
tim p
ti li
t an</w>
softw are</w>
s ligh
s can
risc ului</w>
re ply</w>
pie țe</w>
in spect
hop ing</w>
f lights</w>
ent al</w>
deci dă</w>
campai gn
b ly</w>
at ent</w>
apă rea</w>
aplic ată</w>
agricul tori</w>
To ţi</w>
R ic
L A
EurAc tiv</w>
0 7-
vide o</w>
umanit ară</w>
purch ase</w>
imigran ţi</w>
ide al</w>
ferm itate</w>
extr a</w>
ev ite</w>
disponi bilitatea</w>
deri v
bl ame</w>
absol ută</w>
Nikol ovski</w>
Li p
Şti u</w>
îndeplin esc</w>
tra in</w>
our g</w>
or va</w>
oc am
ocam dată</w>
oare care</w>
n ut
harm ful</w>
genoci d</w>
fo rec
conţin utul</w>
compet enţa</w>
comis ari</w>
cap abil</w>
boy cot
aşte pt</w>
aprob ată</w>
T uri
Mob il
Luxemb ourg</w>
Ci tiz
B ania</w>
ulu i-
uci şi</w>
protej ăm</w>
petre cut</w>
no ti
ne al
interven ţie</w>
impre sion
finaliz at</w>
ex presie</w>
difficul ty</w>
bo ic
beg un</w>
V in
Săptămân a</w>
R ama</w>
P ă
Nic ol
Mak fax</w>
In nov
Consider ăm</w>
ți une</w>
şom ajul</w>
susţin ere</w>
ris curilor</w>
re af
rati ficat</w>
mo şten
miş care</w>
insist at</w>
im pus</w>
appropri ations</w>
G y
5 2</w>
1, 5</w>
încuraj ăm</w>
închei ere</w>
tea mă</w>
superi or</w>
stor age</w>
smar t</w>
shor tly</w>
sem ne</w>
recunoaş tem</w>
pre lua</w>
per s</w>
parlament ari</w>
op ri</w>
musulman i</w>
mon edă</w>
initi ated</w>
il legally</w>
discipl ine</w>
dezamă gi
def ending</w>
cur ţii</w>
cu ţi</w>
consu m</w>
co dific
an ese</w>
afla ţi</w>
a ște</w>
Su bi
Sto jan
Proto col</w>
P O
Iv anovic</w>
Irak ului</w>
Di plom
2 7th</w>
. b
ve de
sugg ests</w>
su r</w>
priorită țile</w>
pe du
pat ent</w>
ofici alilor</w>
k o
europ enii</w>
deb ated</w>
adv ice</w>
V ar
SO LV
Pop ul
Indu stry</w>
EF D</w>
D r
Ad op
str adă</w>
sec tion</w>
ruti er</w>
raport oarei</w>
nea păr
n an
inter -
intelig ente</w>
influen ţ
f at
ex poziţie</w>
elab ora</w>
dezbat erile</w>
depend enţa</w>
consist ency</w>
chap ters</w>
buget ele</w>
avi z</w>
Ver he
Nic o
Naţi onale</w>
Mar kovic</w>
Lam pedu
D atori
Cur rently</w>
Chi ef</w>
v is</w>
uni ons</w>
săr aci</w>
sur ren
su pusă</w>
s ations</w>
p ici
occa sion</w>
numeroas ele</w>
necess arily</w>
identi tate</w>
entită ţi</w>
consolid ation</w>
b ia</w>
an tren
ad ul
ace uti
Zi v
S ect
M ov
Engl ish</w>
Bab acan</w>
ţion ată</w>
în ș
web site</w>
victori e</w>
stimul a</w>
ru ş
pre rog
n one</w>
mis sed</w>
min ut</w>
loc k</w>
l apte</w>
ho spital</w>
formul ate</w>
f ea
eng aged</w>
ear ing</w>
cauz at</w>
ban ned</w>
aut ori
arm elor</w>
ar rests</w>
ab led</w>
a va</w>
Verhe ugen</w>
Un der
S ad</w>
K ri
Commun ist</w>
.b g</w>
wro te</w>
vre un</w>
ti i</w>
reţ ea</w>
preocup ări</w>
feme ie</w>
facilit ating</w>
f ia</w>
ec o
al ar
ac telor</w>
a fi
SOLV IT</w>
L DK</w>
D UI</w>
. m.</w>
- cadru</w>
întâlni rii</w>
vorbe şte</w>
se k</w>
ro utes</w>
restric ted</w>
realiz ată</w>
rail way</w>
preocup are</w>
oc cur</w>
observ ers</w>
libertă ţilor</w>
investi torilor</w>
guil ty</w>
fic ări</w>
de st</w>
bun i</w>
aut umn</w>
al lies</w>
Supre me</w>
R T
O ra
F am
B CE</w>
ști u</w>
vice preşedintele</w>
urg ente</w>
urban e</w>
sp use</w>
rev ine</w>
res ort</w>
requ is
profession als</w>
prizon i
pre tin
pensi ilor</w>
ori a</w>
ni um</w>
mistak es</w>
gener a</w>
fer me</w>
farm aceuti
cri tic</w>
at ura</w>
aleg ere</w>
ag gres
Pres s</w>
Ko fi</w>
Anti -
Întreb area</w>
terri ble</w>
tehnolog ia</w>
tat ing</w>
promot ed</w>
prevent ed</w>
or ation</w>
m ach
disput a</w>
de men
con stitutes</w>
as m</w>
W ar
T oc
înt em
înd răz
tur ne
soluţion a</w>
senten ced</w>
sc ene</w>
rul ed</w>
rezolv ată</w>
privati z
op posite</w>
invest i</w>
dum ping</w>
deli vered</w>
consequ ence</w>
can cer
Rad ical</w>
PP E-
Mex ic</w>
C as
Bo ard</w>
0 9-
întoar ce</w>
telefon ie</w>
ni rea</w>
mul ţi
k et</w>
interpre tation</w>
inju red</w>
in habit
gu i
fel l</w>
di e</w>
deput ații</w>
demonstr ates</w>
cât orva</w>
comentari ile</w>
br on
agen ţiile</w>
adop tă</w>
acoper i</w>
Lj ajic</w>
Lampedu sa</w>
Dus an</w>
9 ,
înch ei</w>
st ocu
sin cere
rep et</w>
mon opo
lar s</w>
judici ară</w>
flo ods</w>
fe ars</w>
f un
desfăş ura</w>
cut rem
corpor ate</w>
b ea
asigur ării</w>
apar t
Klau s</w>
I de
Azerbai jan</w>
Aleksand ar</w>
7 ,
6 4</w>
5 7</w>
usu ally</w>
su m</w>
sim bol
sav ing</w>
ră ma
rel aţie</w>
neapăr at</w>
mun ications</w>
ig no
hi dro
han ded</w>
g ained</w>
exper iment
de pu
coast al</w>
an ți</w>
am end</w>
agend ă</w>
X in
Wel l</w>
Rexhe pi</w>
PPE- DE</w>
PN R</w>
O dată</w>
Neg oci
M au
I P</w>
înregist rează</w>
rec en
p ic</w>
op ţiune</w>
oare cum</w>
nemul ţum
mo vie</w>
loo ked</w>
interv ene</w>
g ambling</w>
form ării</w>
fin ish</w>
fe wer</w>
exper tise</w>
clu b</w>
apro fund
administr ativă</w>
accoun tability</w>
Th ree</w>
Pet er</w>
P ie
vis iting</w>
unanim itate</w>
turi şti</w>
spun ând</w>
pedep sei</w>
mâ inile</w>
frequ ently</w>
el i</w>
cer inţe</w>
arrang ement</w>
acel eași</w>
Parteneri atul</w>
tain ment</w>
t ape</w>
sugges tions</w>
prof essor</w>
mo tions</w>
lans ată</w>
h et
exp and</w>
estim ates</w>
du b
d il
concep tul</w>
col ective</w>
ascul tat</w>
Neighbour hood</w>
Ibra him</w>
Go og
9 8</w>
thir d-
schem es</w>
robu st</w>
mov es</w>
l abor
em ise</w>
du al</w>
deleg aţiei</w>
ci c</w>
Wh ere</w>
Re fer
D ist
sm ugg
pun ishment</w>
pas sports</w>
or gan</w>
of stadt</w>
miniştri lor</w>
ind că</w>
funcţion eze</w>
fot bal</w>
eş uat</w>
echili bre
deb ts</w>
de ţin</w>
crimin alităţii</w>
clim at</w>
br ut</w>
aştep tat</w>
atmo sphere</w>
Verh ofstadt</w>
UN H
I ar</w>
C in
ţi unii</w>
uci derea</w>
surro unding</w>
sla b</w>
ris că</w>
rezi den
reiter ate</w>
refer inţă</w>
posibil itate</w>
plas at</w>
pharm aceu
n ăs
excep tion</w>
ev ităm</w>
deceni u</w>
concluz ii</w>
ceh ă</w>
aprovizion ării</w>
an ei</w>
T as
Sch war
Ini ti
Con sequently</w>
Agen ţiei</w>
2 6th</w>
să mân
stre et</w>
realiz are</w>
re sign
păr ţilor</w>
proto col
o y</w>
o i
mono pol
investi țiile</w>
gradu ally</w>
ec u
dri ve</w>
diplom acy</w>
attr act</w>
a ţa</w>
P ow
I ată</w>
E vi
Col eg
An dre
Ad unării</w>
îngrij ire</w>
stimul ate</w>
s ory</w>
protection ism</w>
obţin em</w>
milit ari</w>
man ded</w>
len nium</w>
ic e
ho sted</w>
fru mo
construc ţii</w>
cer ințele</w>
cauz ele</w>
bac king</w>
al ongside</w>
S and
Progres sive</w>
Nea gră</w>
Exper ţii</w>
Cre şt
won der</w>
un du
tre ime</w>
toler ance</w>
sit e-
păst reze</w>
protej ează</w>
program ată</w>
inhabit ants</w>
găzdu it</w>
fronti erelor</w>
fail s</w>
ett inger</w>
el ho</w>
dat orii</w>
avertiz ează</w>
ast s</w>
Goog le</w>
Face book</w>
Co elho</w>
C vet
00 m</w>
întoc mit</w>
următo arei</w>
tranz it</w>
tel ling</w>
sond aj</w>
respect ing</w>
redundan cies</w>
ra w</w>
promov ăm</w>
pozi ţiile</w>
orient ări</w>
negoci at</w>
mi -a</w>
lu are</w>
lan sa</w>
j i</w>
favor abilă</w>
es ki</w>
comp ul
al og
ac compl
Z ap
Toc mai</w>
Som alia</w>
O I
Minist erului</w>
Merco sur</w>
Lid erul</w>
E u
Dac ic</w>
with draw</w>
vizit ează</w>
ul tr
stabili re</w>
remov al</w>
minorită ţi</w>
l ingvis
j un
im posing</w>
genu in
f ii</w>
ev acu
călători e</w>
ade le</w>
St atis
S hal
Olim pice</w>
O ettinger</w>
Mustaf a</w>
Euro vision</w>
Ambas adorul</w>
în demn
w ind</w>
territ ories</w>
separ ati
scă zută</w>
retrospec tivă</w>
reiter ated</w>
public ate</w>
pro pun</w>
pri oritatea</w>
ori e</w>
or aș
ol der</w>
observ ed</w>
not es</w>
furniz eze</w>
d ice</w>
colect area</w>
col on
col ec
aboli tion</w>
Mo roc
Isl am</w>
An y</w>
zi m</w>
vo inţă</w>
tim pu
rezon abil</w>
reprezent ată</w>
rag a</w>
pro ves</w>
pet rolului</w>
monitori za</w>
misi uni</w>
head quarters</w>
he olog
genuin ely</w>
de tained</w>
confirm ă</w>
comple tion</w>
a qu
V iz
Pop escu</w>
Nico sia</w>
6 8</w>
six -
ro tating</w>
plăti te</w>
out standing</w>
operaţi unile</w>
ob serve</w>
int s</w>
in țelor</w>
edi tion</w>
demonst reze</w>
civil i</w>
angaj aţilor</w>
aj elor</w>
adaug ă</w>
a- free</w>
Rec ent</w>
Dezvol tarea</w>
D al
A prob
terori sm</w>
serv i</w>
sc ore</w>
out lined</w>
mărf uri</w>
high- level</w>
fost er</w>
foresti ere</w>
du c</w>
do x
detali u</w>
confer inţe</w>
comun ităţile</w>
co decision</w>
cen sus</w>
camp aniei</w>
aprovizion are</w>
analiz eze</w>
Sah ara</w>
M Ps</w>
Dav or</w>
B eri
întreg i</w>
z ko</w>
til ă</w>
scrutin y</w>
rec ru
plat form</w>
ori c</w>
fer i
f loo
environment ally</w>
diplom ats</w>
caracter ul</w>
av eau</w>
attr active</w>
amin tit</w>
all s</w>
Solic it</w>
Ric hard</w>
Reprezent antul</w>
Pro secut
Neg re</w>
Mu seum</w>
K yo
In zko</w>
F ar
Chair man</w>
Bas el</w>
vot area</w>
ti tle</w>
sh oc
scienti sts</w>
s lo
re sistance</w>
quali fications</w>
pion ship</w>
mat uri
marg inea</w>
intențion ează</w>
har m</w>
dis poziţia</w>
de serves</w>
conven tions</w>
at ro
ans ele</w>
U g
Techn ology</w>
N ord
Mă surile</w>
Integr ation</w>
Consum er</w>
Ang el
wor thy</w>
trans mit</w>
tow ns</w>
s ni
răsp und</w>
resping e</w>
respec tively</w>
pres sing</w>
pers onală</w>
mi tig
mi stake</w>
locu inţe</w>
i ous</w>
fi res</w>
f ili
exerc ita</w>
excep t</w>
dela yed</w>
de punem</w>
de l
co ast</w>
cho ices</w>
be ings</w>
atâ ta</w>
am ăn
ach ing</w>
S el
Reprezent anţii</w>
K az
Feder aţia</w>
Deut sche</w>
D re
Co- operation</w>
C ât</w>
B ur
Adun area</w>
undu p</w>
su rely</w>
sem neze</w>
sanc țiuni</w>
rig uro
pun ând</w>
pro clam
ph ot
oso ski</w>
op ens</w>
municip al</w>
modern ă</w>
mili ard</w>
gi r
fem in
felic itat</w>
fap te</w>
conserv area</w>
S lav
P as
Mil ososki</w>
Leh ne</w>
F A
En g
Cam pion
ro va</w>
ri yet</w>
ramb urs
pro minent</w>
pri oritare</w>
peace keeping</w>
partener ilor</w>
mobil ă</w>
mari timă</w>
limb i</w>
implic ations</w>
fiz ice</w>
exce siv</w>
efectu ată</w>
ci ent</w>
c k</w>
asc unde</w>
absur d</w>
Ver zilor</w>
T it
Sim p
R C</w>
P un
Ofici ul</w>
Ne bo
Memb rii</w>
G UE</w>
EB RD</w>
Cooper are</w>
B iser
6 1</w>
tem e</w>
privati zarea</w>
op pon
medi um</w>
inclu să</w>
imob ili
dă cin
don ors</w>
diversit atea</w>
dezb ate</w>
coordon ată</w>
continu ation</w>
consider ably</w>
cam p</w>
aprob ate</w>
aliment ar</w>
afe rente</w>
T ro
Mil ovanovic</w>
I I
ști i</w>
surpri sed</w>
stabil izare</w>
rati ficarea</w>
pă mân
po ulos</w>
par al
obser va</w>
legătur a</w>
interzic erea</w>
elder ly</w>
dictat or
deschid ă</w>
convin ce</w>
constru iască</w>
b ag
amend amentelor</w>
ajut oare</w>
ag eing</w>
ad verse</w>
Spea ker</w>
Pri ze</w>
P ra
Op el</w>
H aving</w>
Ad minist
triparti te</w>
sec und
războ iul</w>
redu cem</w>
propriet atea</w>
pres ents</w>
pre s</w>
p aș
modific at</w>
mini ştri</w>
libertă ții</w>
lea se</w>
i al</w>
g os
firm ele</w>
every body</w>
consum ului</w>
consoli dează</w>
confi den
Premi ul</w>
In ten
E g
Cre dem</w>
ă sp
the atre</w>
tehn ologiei</w>
team s</w>
stop ped</w>
sh el
recunos cător</w>
produ cerea</w>
post ului</w>
medic in
lung i</w>
inv ite</w>
incid ente</w>
implement ării</w>
im pună</w>
fil ms</w>
est -
drop ped</w>
dedic at</w>
că derea</w>
curaj ul</w>
coali ţia</w>
chesti unii</w>
asasin area</w>
am ed</w>
K i-
Fran ța</w>
Cro ats</w>
- to-
îm b
thres hold</w>
str ăzi</w>
sou th
sel ling</w>
salut ăm</w>
rest abili
referen dumul</w>
prim- ministrului</w>
pozi ţiei</w>
part ly</w>
ori cine</w>
optim ism</w>
medic amentelor</w>
im prison
efici enţă</w>
cri melor</w>
comm and</w>
cl arity</w>
bre vet
a firm</w>
S pi
S DS
Reg arding</w>
Ech o</w>
5 8</w>
1 ,000</w>
îndepl ine
în dată</w>
uni une</w>
trans formarea</w>
sig uri</w>
rez um
revi ar</w>
reser v
recogn ises</w>
re clam
inv ent
german ă</w>
ff s</w>
f ill</w>
exce sive</w>
elabor ate</w>
dis abled</w>
depl oy
aspir ations</w>
W ol
Val enti
S ăn
Nebo j
N ag
Kyo to</w>
K om
Docu mentul</w>
B reviar</w>
AI D</w>
- led</w>
vess els</w>
urm ări</w>
sensi bile</w>
reser ves</w>
refer it</w>
recipro ce</w>
pro stitu
pre sti
p ain
ori când</w>
ocup a</w>
libertă ţile</w>
h unger</w>
entreprene urs</w>
cros sing</w>
cl o
campaign s</w>
H ot
E F</w>
Bro k</w>
Aprob area</w>
wit ness</w>
wa ve</w>
sy ner
ran a</w>
poll ut
majorită ţii</w>
de x</w>
ar itatea</w>
ad mi
J ad
G A</w>
Fem e
Com bat
Citiz ens</w>
9 9</w>
0 8-
teritori u</w>
stud enţi</w>
stimul area</w>
reti rement</w>
nation alist</w>
multi annual</w>
gi m</w>
furniz ează</w>
fin alul</w>
du că</w>
dist an</w>
conce put
al ă
W all</w>
G arri
Constitu tion</w>
um ul
to dox
schimb ă</w>
rel u
recommen ded</w>
pur tat</w>
pt ată</w>
och ii</w>
o dy</w>
ma x
ma il</w>
k ill
h ur
fi indcă</w>
ea ble</w>
e u
consider abilă</w>
connec tions</w>
capit ală</w>
bi c</w>
b in</w>
att ac
activi sts</w>
Wh ite</w>
Valenti n</w>
T I
S ab
Preşedint elui</w>
P lat
Democr ată</w>
At lan
win ner</w>
vâr st
tw ice</w>
trebu ia</w>
proced ural</w>
orient ările</w>
not ing</w>
legisla ție</w>
iniţi ativele</w>
func tions</w>
et able</w>
ere z</w>
distrug erea</w>
depăş it</w>
compet ente</w>
coe ziunii</w>
ambiţi oase</w>
al on
al led</w>
South ern</w>
Rom anians</w>
R ap
Kur distan</w>
German iei</w>
Cor por
urm ată</w>
under take</w>
soli de</w>
sist e</w>
restric ţii</w>
reprezent ate</w>
ra in
prec is</w>
o i</w>
new ly</w>
n esses</w>
m ers</w>
gi ilor</w>
ex prime</w>
destin ation</w>
de av
că tu
cre ată</w>
cra ft</w>
consul tare</w>
bucur at</w>
b y-
angaj are</w>
americ ană</w>
amend amentului</w>
US AID</w>
Stu di
Ră spun
K er
Hur riyet</w>
E T</w>
Co ali
C C
Bud get
- European</w>
şi re</w>
w ake</w>
ut ului</w>
urm ând</w>
tom an</w>
sal ary</w>
rân duri</w>
rela țiilor</w>
present ing</w>
laun ching</w>
eng le
dimen siune</w>
cotidi anului</w>
contribu ție</w>
con țin
con i</w>
compul sory</w>
ar ise</w>
alo gue</w>
aeri ană</w>
Sâr b</w>
Nim eni</w>
Let onia</w>
Fon durile</w>
Cre ş
Com and
8 ,
volum e</w>
util ă</w>
un ora</w>
tiv i</w>
ste in</w>
societă ţilor</w>
sh ape</w>
pu ţin
por te</w>
orient ation</w>
ne z
meto da</w>
li sts</w>
g ot
dam aged</w>
compar ativ</w>
co decizie</w>
be şti</w>
O S</w>
Neboj sa</w>
BE RD</w>
sti g
sarcin ile</w>
s lu
proportion ate</w>
pas ul</w>
p al
max im</w>
j oc
fortun ate</w>
feat ure</w>
dis appointed</w>
democra ția</w>
all i</w>
I vo
Bakoy annis</w>
An ton
tradi ţionale</w>
tot deauna</w>
t s
sud- est</w>
stabil isation</w>
spo rească</w>
reţ eaua</w>
rec or
rec all</w>
produc er</w>
prim ei</w>
pre text</w>
pl e
per su
p sy
insist ed</w>
gre le</w>
f lag</w>
expl ică</w>
desfăşur ată</w>
d ens</w>
conving e</w>
au to</w>
ani ile</w>
Ukra ini
SDS M</w>
Car tea</w>
5 9</w>
ân ge</w>
vis a-free</w>
ugos lav
turn out</w>
transpor tation</w>
sublini ind</w>
res et
recunos cută</w>
part -
operaţi une</w>
mân a</w>
limit ează</w>
k ic
inu tile</w>
h ic</w>
fulfil led</w>
fres h</w>
exempl ul</w>
estim ate</w>
epi dem
domn ia</w>
dedic ated</w>
chesti unilor</w>
ch et</w>
Liber ă</w>
Extin dere</w>
șom ajului</w>
w arming</w>
v ent
thu si
ten s</w>
struc k</w>
potriv ită</w>
pen ală</w>
magaz ine</w>
libertă ţi</w>
intelectu ală</w>
informa țiile</w>
imedi ate</w>
fo am
fif th</w>
farm s</w>
event h</w>
enor m</w>
echi val
cre ativ
cop e</w>
comand antul</w>
colabor area</w>
bosni ace</w>
bloc at</w>
aș teaptă</w>
alleg ations</w>
acceler ate</w>
Ste in
Liber als</w>
Eur on
D C</w>
2 9th</w>
vice preşedinte</w>
v r
tre at</w>
servici ului</w>
per secution</w>
parteneri atul</w>
oportun ități</w>
n ai
m el
lovit ură</w>
loc ation</w>
judec ată</w>
impul s</w>
fall ing</w>
ex ha
diminea ţă</w>
Investi g
Innov ation</w>
Eu observer</w>
EE AS</w>
Budget ary</w>
B uz
An aly
Ac ade
where as</w>
u k</w>
trans position</w>
tradi tions</w>
secre te</w>
prevă zută</w>
po d
plă ţi</w>
le- ar</w>
k ul
ju r</w>
it ată</w>
hop ed</w>
g ând</w>
er oare</w>
em at
desfăşur ate</w>
cro w
continu u</w>
com is</w>
co d</w>
cal m</w>
c ards</w>
ail s</w>
Turkmen istan</w>
Pe ti
Mi ş
Gold stone</w>
Ch urch</w>
Biro ul</w>
1. 5</w>
îmbunătăţi rii</w>
viol ență</w>
vari ety</w>
prom ite</w>
pl in</w>
olog ică</w>
no w
mot or</w>
mess ages</w>
macedon eană</w>
k y</w>
investi tori</w>
inv itat</w>
intern etului</w>
im punerea</w>
grani ţă</w>
diferen ţele</w>
deșe uri</w>
dep th</w>
de sign</w>
ce vic</w>
ast ru</w>
ar ising</w>
ambas adorul</w>
V reau</w>
Proto col
N a
Declar aţia</w>
2 4th</w>
00 ,000</w>
w ast
sp lit</w>
seas on</w>
rel at
program ming</w>
pregă teşte</w>
pre requis
mode ls</w>
limit area</w>
grad ul</w>
fa ult</w>
dificul tate</w>
câştig ă</w>
cunos c</w>
contro ale</w>
chan ces</w>
bro v
bel ong</w>
aviz ul</w>
arm ă</w>
angaj eze</w>
ampl ă</w>
S -au</w>
R as
Pet ar</w>
Elve ţia</w>
ăr e</w>
zil ei</w>
trav elling</w>
rev it
put inţă</w>
perpe trat
patrimon iului</w>
m emorandum</w>
lob by</w>
justi ficată</w>
fri end</w>
exerc ite</w>
enor me</w>
cop il</w>
ab a</w>
R ice</w>
Israel ului</w>
C R</w>
A N
vali d</w>
standar dis
semn ate</w>
recor ded</w>
rece siune</w>
rec ord
ra ţi</w>
prime şte</w>
pie țelor</w>
peric olul</w>
particip anţi</w>
is s</w>
insp ir
implement are</w>
funcțion ează</w>
export urilor</w>
en sured</w>
dum neal
care er</w>
asp ectelor</w>
apel ul</w>
an ții</w>
Top i</w>
Ivo ire</w>
Administ ra
1 10</w>
tim ber</w>
sor ry</w>
sequ ent</w>
scri p
ren unţ
re ver
propun ă</w>
monit ored</w>
mo on</w>
legă turile</w>
est ock</w>
en thusi
ef ectul</w>
de manded</w>
d zic</w>
co s
camp anii</w>
activ ităților</w>
Th ess
Po zi
NG O</w>
Mil lennium</w>
Echip a</w>
Cvet kovic</w>
Bud ap
Asoci aţia</w>
Aleg erile</w>
Agen ției</w>
terro r</w>
sâr beşti</w>
renew ed</w>
promov ării</w>
nec o
mis s
mid dle</w>
interes aţi</w>
fin dings</w>
fac torii</w>
ex tern</w>
et ei</w>
deleg aţie</w>
com pri
bucur a</w>
boic ot
asum ate</w>
angaj aţii</w>
acţion ează</w>
Med ic
L A</w>
7 8</w>
ți ale</w>
âr g
y le</w>
tarif f</w>
pragm atic</w>
plec at</w>
ecolog ical</w>
depl oyment</w>
competen ţele</w>
az ul</w>
ag rav
Re port
P alest
NG L</w>
Fin land</w>
Col lege</w>
v estul</w>
ta j
t este</w>
sligh tly</w>
respon den
resear chers</w>
prezent ă</w>
or din</w>
n ațională</w>
moment um</w>
li sted</w>
law yer</w>
indic atori</w>
identi fica</w>
i er
g lo
exploat ării</w>
el ev
cros s
co ach</w>
britan ici</w>
air ports</w>
ab ţinut</w>
Leg al</w>
K l
I S
F l
Dou ă</w>
C asp
Aut oritatea</w>
z stan</w>
tel ep
stabil ește</w>
simpli fied</w>
si rii</w>
regul at</w>
r able</w>
produ sul</w>
președint elui</w>
ou d</w>
on to</w>
mo arte</w>
men it</w>
indic ator</w>
in eg
i- ar</w>
gro ss</w>
fraud ă</w>
eni ului</w>
de semnat</w>
căut area</w>
consist ently</w>
ch urch</w>
bloc king</w>
b acks</w>
adevăr ul</w>
abord ată</w>
P ur
Muham et</w>
Gul f</w>
Dj elic</w>
Beri şa</w>
întem ei
struc turilor</w>
solidar ităţii</w>
răspân di
mar cat</w>
instrum entul</w>
ho spit
form ally</w>
du plic
discu ții</w>
direc ție</w>
dimen siuni</w>
comisi ilor</w>
comer ț</w>
ad ds</w>
Un til</w>
Politi ci
Micro soft</w>
Im port
HI NA</w>
D jo
Co E</w>
C ô
Amb ele</w>
ț at</w>
întreb at</w>
înaint ate</w>
terorism ul</w>
s sions</w>
recen sămân
pat ern
mut u
ju g</w>
intr ării</w>
imper ative</w>
h ence</w>
festiv alului</w>
evid ente</w>
erro rs</w>
enter tainment</w>
en ă</w>
discre pan
defin ing</w>
că i</w>
confr unt
asu s</w>
adu cem</w>
S L</w>
O therwise</w>
uş ur
tubercul o
t ling</w>
semn ul</w>
ră n
rat ings</w>
popul are</w>
politici enilor</w>
po p
optim istic</w>
locu itorii</w>
il a</w>
fi ve
etichet area</w>
echit abilă</w>
dezvol tăm</w>
determin ată</w>
dem isia</w>
cro ss</w>
con ține</w>
comput er</w>
cl ea
ch e</w>
ba ze</w>
automob il
af le</w>
abil ităţii</w>
Venezu ela</w>
Ucra inei</w>
T eh
Soci et
Rel ations</w>
Kab ashi</w>
H al
Cô te</w>
199 4</w>
şed ere</w>
w est</w>
t our</w>
sub sequent</w>
st ems</w>
reţel ei</w>
regul arly</w>
o pre
nut ri
n ave</w>
liv estock</w>
ir ani
iniţi ală</w>
h ăr
f uri
exist entă</w>
el ic
de ţinu
cifre le</w>
car ton
benefici aries</w>
activ ității</w>
Mad rid</w>
E R</w>
C ity</w>
împărtăş esc</w>
viol ente</w>
tri mită</w>
tehnolog ice</w>
stand -
regi stration</w>
pi r
origin ea</w>
ofer ită</w>
l enda</w>
in sa</w>
implement at</w>
got ten</w>
fl ot
extin se</w>
determin are</w>
dem er
coll ected</w>
b ak
an cient</w>
adap tarea</w>
accesi bile</w>
Tur ks</w>
Pr lenda</w>
M ik
C lim
îngro z
Între prin
Îm preună</w>
with draw
we ight</w>
w inning</w>
repres sion</w>
raport oarea</w>
or dered</w>
lă ud
lu x
l y-
instan ţă</w>
gen erează</w>
em in
dist ance</w>
convin să</w>
categori c</w>
autom at</w>
ath let
an ților</w>
am mer
ab uses</w>
Vlad o</w>
Tri bune</w>
Thro ugh</w>
P DK</w>
A dev
8 3</w>
încet eze</w>
vehic le</w>
rev ină</w>
responsabil ităţile</w>
ref use</w>
public ly</w>
provo acă</w>
pregăt i</w>
pi rat
istori ei</w>
funcţion a</w>
et c</w>
dif uz
de ască</w>
că zut</w>
cre are</w>
biro ul</w>
b es</w>
amân area</w>
advoc ate</w>
accel era</w>
Loc al</w>
E le</w>
Du brov
Bosni ak</w>
împărtă ș
În alt</w>
tranzi ție</w>
transparen ța</w>
stu ffs</w>
sho ul
s es
recomand area</w>
per form</w>
opini ei</w>
ofiţ eri</w>
offic er</w>
lucr ărilor</w>
liqu id
liber alizare</w>
il s</w>
fon dat
fer ice</w>
fe z
fac tory</w>
est ru</w>
dom ni
dis propor
decentr alisation</w>
dat ab
cunos cute</w>
contrac te</w>
constitu ţia</w>
am id</w>
accu sations</w>
Tin ere
Tim e</w>
Tan jug</w>
Președin ției</w>
Ne- am</w>
May or</w>
ME P</w>
Con c
8 8</w>
vehic ule</w>
um s</w>
sec olului</w>
se es</w>
ro r</w>
recommen d</w>
recomand ă</w>
perio ds</w>
k an</w>
implement eze</w>
g amă</w>
do ors</w>
democr atisation</w>
cruci ale</w>
con turile</w>
categori es</w>
aște pt
Taj ani</w>
Mini ştri
MI A</w>
M ur
Comun ic
A ir</w>
v ina</w>
tempor ară</w>
surpri se</w>
si unilor</w>
ra ises</w>
psi h
prosper itate</w>
organiz aţia</w>
organis me</w>
mit ere</w>
lăs ăm</w>
low est</w>
investi ţie</w>
impoz itare</w>
explan ations</w>
es tion</w>
ent y</w>
constru it</w>
at are</w>
Sp re</w>
Creş terea</w>
Ass ad</w>
înghe ţ
wh el
un de
tre cute</w>
sărb ători
socio- economic</w>
soci ali</w>
self- employed</w>
sel ect
sel ec
retrag erea</w>
re public</w>
r at</w>
preal abilă</w>
o di
m int
li i</w>
ju b</w>
jo s</w>
geogra fice</w>
er us
eligi ble</w>
efectu a</w>
dis agree</w>
com uni
co le</w>
as sured</w>
am ir</w>
al er
Vu kov
T F
C 7-0
A vi
A sist
încer ce</w>
ultim ă</w>
tă ţi</w>
tri als</w>
suspend area</w>
responsabil ităţii</w>
re conc
rat ele</w>
provi ders</w>
open ness</w>
neigh bour</w>
mijlo acelor</w>
manufac turing</w>
ex changes</w>
en ables</w>
dur at</w>
dezb ăt
bin ele</w>
associ ations</w>
assassin ation</w>
as ser
arri ve</w>
accep tăm</w>
Probl em
P lease</w>
Mar ia</w>
C ad
B at
â l
w al
under lying</w>
t- wing</w>
st abil</w>
sm ul</w>
shi ft</w>
ră ni
resign ation</w>
re alised</w>
pri ori
petro li
pass ing</w>
parti al</w>
orit ară</w>
maghi are</w>
justi fy</w>
iz ează</w>
inter institutional</w>
inter ference</w>
hu a</w>
fol ose
fo ods</w>
esti ce</w>
er up
e tice</w>
consi de
condi tional</w>
comun ist</w>
R ural</w>
Op en</w>
Mediter ana</w>
Afri cii</w>
ându- ne</w>
ti pul</w>
sum i</w>
si i</w>
reprezentan ţilor</w>
problem atic</w>
perform ed</w>
p av
is i</w>
introduc erii</w>
intellig ent</w>
identi ficat</w>
hal t</w>
exclu ded</w>
emphasi ses</w>
digit ală</w>
dez bătut</w>
cot elor</w>
comport ament</w>
cer t</w>
aw arded</w>
asist ența</w>
al cătu
P C</w>
Do es</w>
Des ch
ă u</w>
îmb ră
volunt ar</w>
sentim ent</w>
sent ences</w>
scu ze</w>
sc ar
resid ence</w>
ref ers</w>
pă durilor</w>
promot es</w>
pro hib
pre n
plani ficate</w>
pharmaceu tical</w>
over whel
min un
lem n</w>
jurisdic tion</w>
ic ilor</w>
i ved</w>
f ought</w>
exclu sively</w>
exag er
end ang
en deav
e en</w>
călăto resc</w>
cuno aş
comm emor
ce anu</w>
c arte</w>
bun urile</w>
aprob a</w>
ajung ând</w>
adăug a</w>
Z e
Th an
Sup port</w>
Net work</w>
Mir ko</w>
L ul
Jocu rilor</w>
Fili p</w>
E d
Comm on</w>
3 50</w>
îndoiel i</w>
timp ului</w>
sym bol
restructur area</w>
re un
pu rely</w>
pri mar</w>
minorită ţile</w>
mediterane ene</w>
maş ini</w>
magh iar</w>
il ing</w>
identi ficate</w>
extin dă</w>
er ce</w>
em por
despăgu bi
demogra fice</w>
d aţii</w>
complex ă</w>
competen țe</w>
coali ţiei</w>
capit ole</w>
bu ying</w>
ben ch
aște p
armon izare</w>
alb astru</w>
Thess alon
Mov ement</w>
Maj or</w>
Justi ţiei</w>
G N
Aş te
9 00</w>
între ru
înt ru</w>
regul ating</w>
put erile</w>
protest at
propri u</w>
munteneg ren
list ened</w>
lear ned</w>
fam ous</w>
f us
f ere</w>
f ate</w>
dis placed</w>
Războ i</w>
Direc torul</w>
D C
Con stan
6- 0
însă şi</w>
sum mar
sh ori</w>
ro ş
regul ă</w>
protej ării</w>
plur alism</w>
mod uri</w>
min or</w>
min er
mențion ez</w>
medic amentele</w>
lic hid
interven ţia</w>
in o</w>
im er
hy po
har dly</w>
folos ind</w>
f ă</w>
en ic</w>
econom isi
dos ar</w>
dat ing</w>
d ar
c av
brief ly</w>
after noon</w>
ace ști</w>
Vukov ar</w>
Thessalon ik
Li ke</w>
Initi ative</w>
I L
Dur res</w>
Bra j
5 -
ști ți</w>
şco ală</w>
învăţ ământ</w>
transform at</w>
tic ilor</w>
the -
regul amente</w>
recomand at</w>
protec ției</w>
organis ing</w>
olu tion</w>
jurnali ştilor</w>
it ară</w>
isi u</w>
implic ată</w>
ice anu</w>
gener at</w>
fac eţi</w>
experi ences</w>
coeren tă</w>
cl ash
categori a</w>
cap abilities</w>
bog ate</w>
anchet ă</w>
ammer tz</w>
air craft</w>
Z eljko</w>
Voj vodina</w>
Rezultat ele</w>
Mo isiu</w>
Her ald</w>
Br ammertz</w>
Baj ram</w>
uni unii</w>
tur area</w>
refuz ul</w>
prof ile</w>
pri ze</w>
li ved</w>
l es
fav ori
exerciți u</w>
cu sto
contrib utes</w>
cont ează</w>
cat ch</w>
ar ca</w>
ap tea</w>
administra ţie</w>
accur ate</w>
The atre</w>
SEA E</w>
Pers onal</w>
N ici
Koz lo
Iran ului</w>
E for
ți unile</w>
ăr a</w>
ă p
înt ors</w>
un ităţi</w>
ultim elor</w>
soci al-
sec ular</w>
post uri</w>
om ir</w>
ni k
medicin al</w>
justi ficate</w>
exce sivă</w>
ex tradition</w>
elim ine</w>
defic itului</w>
def inirea</w>
cuprin se</w>
chan n
ceremon ia</w>
ați unile</w>
authori sed</w>
aut enti
al liance</w>
ac umul
ac commod
Tar iceanu</w>
Stojan ovska</w>
Sch o
Ri ver</w>
Asoci aţiei</w>
înţeleg em</w>
z b
veter in
tren ds</w>
subsidiar ităţii</w>
sol ving</w>
s ati
păst rarea</w>
presi unii</w>
prelimin ary</w>
potenți alul</w>
os y
op ere</w>
ocup at</w>
municip alităţi</w>
mun ia</w>
mod al
l y
kosov ară</w>
insist s</w>
ic -
ha ide
glob alizării</w>
ec osy
creș tin
constan tă</w>
clim ei</w>
chil d
capac ities</w>
candidat ura</w>
ban ane</w>
atac urilor</w>
Ziv kovic</w>
Thessalonik i</w>
R E
G 17</w>
E ra
Creşt in-
Bud gets</w>
Al munia</w>
zil nic</w>
vân zare</w>
vorb ească</w>
t ările</w>
sub jects</w>
stand- by</w>
safegu arding</w>
s atul</w>
plăt esc</w>
pil on</w>
orient are</w>
minist ries</w>
ist a</w>
isol ation</w>
incen tive</w>
dăun ătoare</w>
divers itate</w>
dificultă ţile</w>
determin ă</w>
demonstr ations</w>
cut -o</w>
cuno știn
consumat orului</w>
conces sions</w>
cat re</w>
arg o</w>
an ta</w>
alt ora</w>
aleg ătorilor</w>
accoun ting</w>
accept abil</w>
Ph ili
Ex plic
C IT
Armat ei</w>
În t
v ag
s cape</w>
ro se</w>
reţel elor</w>
rev in</w>
păr țile</w>
obo da</w>
ned re
mobil ise</w>
in equ
fa ther</w>
dri vers</w>
dez avantaj
construc ţiilor</w>
consili ului</w>
bulg ară</w>
broad band</w>
bl ack
ap are</w>
an cy</w>
amb assador</w>
Offici als</w>
Cot on
Bah rain</w>
ări ceanu</w>
vede v</w>
unanim ously</w>
ulteri oară</w>
ugoslav ă</w>
tem erile</w>
stric tă</w>
res titu
regi str
plă cere</w>
perman ente</w>
o anele</w>
merg em</w>
jurnali şti</w>
investi t</w>
in k</w>
h i</w>
france ză</w>
fil ed</w>
desi rable</w>
c ile</w>
bo und</w>
aleg ători</w>
T ăriceanu</w>
Stan kovic</w>
Ser g
Sch imb
Ro undup</w>
Med vedev</w>
Har is</w>
Dimit ris</w>
Berl us
stres sing</w>
preşedin ţie</w>
p ays</w>
p alestinian</w>
orient ed</w>
opor t
not ably</w>
locu itor</w>
loc ui</w>
jik usic</w>
investi torii</w>
emerg ente</w>
electri cal</w>
el l</w>
dez echilibre
condi țiilor</w>
cir ca</w>
autoveh icul
atmo sfer
Represent atives</w>
Ki- moon</w>
Had zic</w>
F ü
Coton ou</w>
Ar ti
Ap prov
ţ ită</w>
ămân tului</w>
zil ele</w>
withdraw al</w>
vr ut</w>
viz ate</w>
v ente</w>
system atic</w>
sincere ly</w>
scri să</w>
revolu tion</w>
regi stru</w>
referendum ului</w>
re țel
rati fy</w>
prot este</w>
pol is</w>
mulţum ită</w>
ish -
in feri
găzdu ieşte</w>
garan tăm</w>
enterpri se</w>
cri tice</w>
costisit oare</w>
coordon ate</w>
con taining</w>
Xin hua</w>
Sâr b
Dan em
Cauc asus</w>
Braj shori</w>
Bori s
14 2</w>
ş ul</w>
vie ţi</w>
urg es</w>
sh ot</w>
ruti ere</w>
rezul tă</w>
re construc
pur ta</w>
pre mat
port o
plan urilor</w>
perfect ly</w>
open ly</w>
o lim
no apte</w>
n ur
migr ant</w>
m end
lucr ări</w>
inter oper
inten ţiile</w>
et elor</w>
em al</w>
dur ă</w>
domin ated</w>
an on
Sig ur
M isiunea</w>
Kon jikusic</w>
K ath
Berlus coni</w>
Approv al</w>
A E
ându- l</w>
tre c</w>
tot alul</w>
susțin erea</w>
soluţion are</w>
smugg ling</w>
ro man
ran king</w>
prezent are</w>
preven irii</w>
peric ulos</w>
intelig entă</w>
integri tatea</w>
igno red</w>
focu ses</w>
dificultă ți</w>
depăş ească</w>
cre zut</w>
consec ințe</w>
centr alele</w>
cas ele</w>
acceler area</w>
O li
Nor veg
Negoci erile</w>
Lea gue</w>
Kra sni
Ide ea</w>
Fü le</w>
Be q
B ag
Ang aj
u rez</w>
sh ore</w>
resum ed</w>
popo arelor</w>
particip ării</w>
n j
lă sa</w>
li ti
her o
europ enilor</w>
e po
deten ţie</w>
consider a</w>
commission er</w>
chem ical</w>
cel lor</w>
capit alului</w>
bur dens</w>
arch ae
ap plau
alătur e</w>
Z il
W .</w>
Ug anda</w>
L uni</w>
Crăci un</w>
Ac tiv
7 2</w>
voic es</w>
stag n
rel ate</w>
rec rut
re str
premi erului</w>
pet us</w>
oz itate</w>
or are</w>
mor tal
mențin erea</w>
mar ilor</w>
in comes</w>
import ate</w>
il ia</w>
frau dei</w>
for gotten</w>
feme ii</w>
f it
execu ția</w>
ex posed</w>
discut e</w>
democra ţii</w>
că să
competitiv ității</w>
ating ă</w>
appro aches</w>
aplic abile</w>
alătur at</w>
Resp on
Princip alul</w>
Mar ovic</w>
Macedon ians</w>
Evi dent</w>
Em b
Ch inei</w>
C ari
Bo jana</w>
y cl
ut -o</w>
ulteri oare</w>
third- country</w>
stră du
spani ole</w>
run s</w>
rid or</w>
reve aled</w>
retr age</w>
rang ing</w>
or ale</w>
oportun ităţile</w>
manag ement
im petus</w>
har ov</w>
gre şe
graph y</w>
german e</w>
f ro
evalu ării</w>
em ite</w>
echi pe</w>
divers ele</w>
destro y</w>
cunos cută</w>
coun ts</w>
constitu it</w>
bre ach</w>
bil i</w>
ba il
aște ptăm</w>
Stre et</w>
L ig
Func tioning</w>
Emb assy</w>
E mi
Dim potrivă</w>
Depart amentul</w>
Con di
Adri an</w>
A z
uti le</w>
tri bute</w>
ten sion</w>
teach ers</w>
solicit ări</w>
si e</w>
sal arii</w>
s cum
resor tis
port ul</w>
n ings</w>
meto dele</w>
li day</w>
lac king</w>
l unile</w>
inno cent</w>
ic ation</w>
f aza</w>
exp ecting</w>
exerciți ului</w>
evid entă</w>
cooper ări</w>
confer inţei</w>
ch air</w>
amen inţă</w>
aliment ele</w>
adequ ately</w>
US A</w>
Parti dele</w>
N atur
Miniştri i</w>
M -am</w>
Jocu rile</w>
Den mark</w>
A ri
A gim</w>
7 3</w>
199 8-
înră ută
uni fied</w>
tru pe</w>
susţin ute</w>
suspen sion</w>
sub jected</w>
se siunea</w>
rit mul</w>
realiz ează</w>
paral el</w>
ologi sts</w>
mar ca</w>
lans ate</w>
inaugur at</w>
il ling</w>
găs esc</w>
gradu al</w>
far -
examin ed</w>
el d</w>
deput aților</w>
contribu ind</w>
con vers
con exi
cle an
cl ass
al arming</w>
aint ea</w>
Tun isi
Ti hic</w>
Res olution</w>
Ob viously</w>
Bel ene</w>
Ang ela</w>
1 1.
un ităţii</w>
stres ses</w>
sk y</w>
re m</w>
quot e</w>
prom pt</w>
pre fer</w>
ori cărui</w>
ori care</w>
ob taining</w>
imigra ţia</w>
gos pod
fulfil ling</w>
erro r</w>
emerg ed</w>
decre ase</w>
cos me
c ilor</w>
bo -
b ic
air line</w>
Nor way</w>
N U
Muz eul</w>
Gu ine
Festiv alului</w>
Dubrov nik</w>
Cur ții</w>
Cont inu
încălc ările</w>
încet area</w>
sud- estul</w>
st ea</w>
restructur are</w>
refl ecte</w>
procuro rii</w>
prezent e</w>
plă ților</w>
pensi ile</w>
menţin em</w>
m am
initi ate</w>
func ție</w>
ed ge</w>
do z
demonstr ation</w>
cot e</w>
consec ven
c af
ari ei</w>
arch itect
antrepreno ri
accel ereze</w>
ac torii</w>
Program ului</w>
Pri mului</w>
J acqu
Ir landei</w>
G all
Euro stat</w>
Da ily</w>
Comp on
Al f
- cheie</w>
Şti inţă</w>
to bac
ther ine</w>
stipul ează</w>
scr utin</w>
salv gar
s we
produ că</w>
preocup area</w>
p om
năs cut</w>
fugi tive</w>
equi valent</w>
emer ge</w>
dezastr u
const ra
ast ri
absen ţa</w>
Th ail
T en
T at
Strateg ic</w>
G or
Cam era</w>
AK I</w>
8 1</w>
7 1</w>
- day</w>
z ie</w>
viol ated</w>
victori a</w>
us ul</w>
thous and</w>
tehnologi ilor</w>
sub -
so vie
sentim entul</w>
reţel ele</w>
re di
macro economice</w>
la să</w>
ide ile</w>
i ka</w>
f ans</w>
extre mă</w>
engle ză</w>
du rează</w>
dictat or</w>
d am</w>
câști g
conști enți</w>
auth ors</w>
aran j
Pre ven
Con federal</w>
9 1</w>
7 6</w>
12 44</w>
- vă</w>
vehicul ele</w>
tre imi</w>
telecom munications</w>
survi ve</w>
spectr um</w>
respon ded</w>
pără sit</w>
oper atorii</w>
obi ș
no tic
modific ate</w>
milit ar
intern etul</w>
formul a</w>
fin es</w>
emat ogra
efectu eze</w>
efectu area</w>
dos sier</w>
dis punem</w>
destin ată</w>
conserv ation</w>
compromis ul</w>
cohe rence</w>
co ver
co m</w>
cer ând</w>
ce -
avoi ding</w>
autonom ie</w>
aliz eze</w>
adi an</w>
Wor kers</w>
U PI</w>
Tran spor
T og
S M
N ano</w>
Jap anese</w>
F lo
Egy p
Cul tură</w>
Belgra de-
zon es</w>
tre cerea</w>
transparen tă</w>
threaten ing</w>
tehnolog ică</w>
spați u</w>
recunos cute</w>
raport ori</w>
perpetrat ors</w>
mod alităţi</w>
mod alitatea</w>
medi ator</w>
mar fă</w>
mar c
liber alizării</w>
kur dă</w>
ing redi
impoz ite</w>
fast er</w>
ear marked</w>
character istics</w>
ch ai
ce h</w>
artic le</w>
aprob are</w>
ap ere</w>
an ță</w>
ameninţ ări</w>
adap tation</w>
M em
LA F</w>
Jacqu es</w>
For ces</w>
&apos; m</w>
ştiinţi fică</w>
împied ice</w>
zi dar</w>
un ită</w>
tobac co</w>
sacri fic
rid ice</w>
resid ent</w>
on- year</w>
obiș nu
not ă</w>
manag ers</w>
lip sit</w>
l ar</w>
inevit abil</w>
inequ alities</w>
fon dului</w>
esti că</w>
eng ine
constru im</w>
clea rer</w>
camp s</w>
ak i</w>
ac cord</w>
Y il
T uz
Sw oboda</w>
S on
R olul</w>
Permit eți-mi</w>
Nig eria</w>
Luc r
Krasni qi</w>
Go als</w>
D er
Ch esti
8 9</w>
5 ,000</w>
şe c</w>
înch ide</w>
year- on-year</w>
vân d
vre mea</w>
utiliz ăm</w>
tre ptată</w>
transparen ţei</w>
spec ii</w>
semn al
sal va</w>
respon ses</w>
reduc tions</w>
propun em</w>
por no
pl easure</w>
organ s</w>
obțin ut</w>
obstac olele</w>
mun c
ma ți</w>
in ței</w>
in capacitatea</w>
e şec</w>
e o</w>
doc tors</w>
def en
de ocamdată</w>
constru ită</w>
constat at</w>
con tain
col oni
cere rilor</w>
b o</w>
accep tă</w>
academ ic</w>
Sect orul</w>
P it
P alestini
O LAF</w>
For ce</w>
Datori tă</w>
CE FTA</w>
Ac el
ţi unilor</w>
ş ansele</w>
v entă</w>
um e</w>
thir ds</w>
tem eri</w>
tax a</w>
str ingent</w>
ser ii</w>
pri s
pri marea</w>
mix ed</w>
log ical</w>
li ers</w>
ing e</w>
hand ling</w>
guvernament ală</w>
fă cut-o</w>
fronti ere</w>
fal iment</w>
explan ation</w>
ex cu
ci g
but ov</w>
ard ous</w>
ag o
ag as
adun at</w>
Wal d
ONG- uri</w>
No ile</w>
EC O
Creştin- Democrat</w>
Ca therine</w>
Bo zidar</w>
Bar butov</w>
7 7</w>
7 4</w>
ști e</w>
structur ă</w>
s ad</w>
relig ie</w>
produ c</w>
preved erilor</w>
o tive</w>
o c</w>
justi ţia</w>
identi tatea</w>
hi ding</w>
finan ţa</w>
dri ven</w>
desfăşur area</w>
cred itele</w>
concluz ia</w>
civil iz
circul ație</w>
centr alelor</w>
benefici at</w>
Wald ner</w>
S olu
Presid ents</w>
E ri
Dem etri
îngrij orează</w>
îndrep tăm</w>
wai ver</w>
w arm
v i</w>
uş oară</w>
tă re
tranzac ţiile</w>
stabil izarea</w>
societă ţile</w>
res cu</w>
re ț
men ită</w>
m ere</w>
m al</w>
inter conect
iniţi at</w>
garan ţie</w>
fru it</w>
exam ina</w>
elimin at</w>
e- based</w>
distru ge</w>
dis advant
detali ate</w>
ce he</w>
bo ală</w>
argu ed</w>
ap on
an ge</w>
ali ei</w>
actu alele</w>
W at
Trat at</w>
S z
N ec
uni ver
tic or
ter ing</w>
telecomunic aţii</w>
symbo l</w>
sing ure</w>
secon d
retur ning</w>
ran g</w>
presti gi
prelimin are</w>
pol i</w>
op ţiuni</w>
no body</w>
mențion ate</w>
issu ing</w>
investi țiilor</w>
hop efully</w>
ho liday</w>
h r
evit area</w>
ep is
custom ers</w>
answ ered</w>
ab uz</w>
U z
Sub ject</w>
Proces s</w>
H aj
Fo sta</w>
B ash
An aliştii</w>
1 30</w>
te atru</w>
submin ează</w>
sub sequently</w>
su fl
sm us</w>
slov en</w>
situ ează</w>
ship ping</w>
schimbu rile</w>
retur n
resping erea</w>
resp unz
recogn ising</w>
ra f</w>
pu shing</w>
program ate</w>
li a</w>
it ării</w>
inclu zând</w>
in ii</w>
import urilor</w>
finanţ at</w>
e c</w>
dispar ities</w>
diferen ţe</w>
cultur i</w>
cifr a</w>
c ic
balcan ică</w>
Pri z
Mar ko</w>
K at
Institut ului</w>
In sul
Fin landa</w>
Europe ana</w>
Era smus</w>
E ach</w>
înregistr a</w>
în căr
uc rain
suspec ţi</w>
slab ă</w>
reuni fication</w>
părăs ească</w>
pun ished</w>
prim ite</w>
priet enii</w>
pov ara</w>
p ending</w>
neco respunz
ne -ar</w>
me z</w>
ish ev</w>
inter governmental</w>
fermi erii</w>
ex puse</w>
et z</w>
et ate</w>
es n</w>
deleg aţia</w>
cont est</w>
comport amentul</w>
compar ison</w>
capit ol</w>
cad ă</w>
bi ei</w>
arti şti</w>
alban ezii</w>
W all
S ta
Președint ele</w>
Oc cident
N on
Journ al</w>
Clim ate</w>
Buz ek</w>
Armat a</w>
won der
un fortunate</w>
supravegh erii</w>
sprijin ită</w>
sem nat
secret ary</w>
ran ks</w>
orizon tal</w>
oraş ele</w>
ocaz ii</w>
mom ente</w>
mi -
lob by
interz is</w>
in ima</w>
i ar
formul area</w>
end os
en sures</w>
convic ted</w>
bucuro s</w>
bas ically</w>
an ex
al eagă</w>
acți unilor</w>
ace vic</w>
accep tarea</w>
Tog ether</w>
Obiectiv ele</w>
Nic hol
Luk ash
K LA</w>
Chan cellor</w>
Cha ir</w>
Bra zili
B a
8 2</w>
în demn</w>
voc ational</w>
viol ența</w>
trat ează</w>
trans action</w>
tit lul</w>
stric tly</w>
spani ol</w>
prevă d</w>
plen ară</w>
menţion ând</w>
mark et
ma sive</w>
ma sa</w>
interes ant</w>
in vo
enh ancing</w>
e- scale</w>
contro la</w>
constru ite</w>
chim ice</w>
chann els</w>
c s</w>
bar on
at roc
asigur ând</w>
X X
With in</w>
Te hn
Moroc co</w>
Ky r
Gener ale</w>
A bo
1998- 1999</w>
urmă resc</w>
transform e</w>
th nic</w>
ter most</w>
so red</w>
sec uring</w>
recunoaș terea</w>
păstr ăm</w>
prof ite</w>
pl ină</w>
over -
ou termost</w>
ori unde</w>
iniţi ale</w>
in ele</w>
fi ei</w>
ev ol
estim at</w>
dumneal ui</w>
di m
de priv
contr actual</w>
bl ue</w>
assess ed</w>
an ței</w>
acord ării</w>
St aff</w>
Sil aj
S ha
R um
Or dinea</w>
Mal ay
K en
Ex ecu
Car tei</w>
Bug etul</w>
ţin erea</w>
u k
turi stice</w>
ten siunile</w>
tempor ar</w>
sun am
solicit ările</w>
sh e
second ary</w>
reserv ations</w>
pă -
provoc area</w>
posibil ităţi</w>
poliţi en
neg l
n y</w>
n is</w>
judg ment</w>
j apon
it es</w>
indic ation</w>
implement a</w>
fo od
finanţ ate</w>
du pă-
decizi onal</w>
conşti enti
cea se
boycot t</w>
ain t</w>
Sum mit
S P
R ome</w>
Oc cid
Fac ul
științi fice</w>
ăt orului</w>
to amnă</w>
swi ft</w>
sm ului</w>
s esc</w>
rej ection</w>
r het
pi on</w>
pasag erii</w>
oblig ativ
lup tăm</w>
implement ate</w>
france ze</w>
f an
enjo yed</w>
ef ectivă</w>
dubl ă</w>
doc tor</w>
distribu irea</w>
dam aging</w>
cuno aşte</w>
clas si
b b
ati e</w>
as em
argu ing</w>
Telec om</w>
Stan ishev</w>
Pro b
K ol
K an
Jad ran
ES E</w>
Ar gent
Apro ape</w>
z- Sch
z-Sch illing</w>
word ing</w>
ven itul</w>
transpor tat
ti bet
stic k</w>
rezerv ele</w>
relation ships</w>
public area</w>
procuro rul</w>
pop or</w>
ore n</w>
neces ităţii</w>
n ul</w>
monopo ly</w>
less on</w>
kill ings</w>
ic ule</w>
form ing</w>
facilit eze</w>
explic a</w>
dezast relor</w>
den o
constr âng
constitu ţiei</w>
coleg ului</w>
civil ilor</w>
candi dată</w>
anticip ează</w>
amint i</w>
addres ses</w>
accept ance</w>
Prof essor</w>
Mul ti
Lukash enko</w>
Lab us</w>
Je an-
De jan</w>
ăl alt</w>
wi fe</w>
where by</w>
trans mitem</w>
tehnologi ile</w>
sup plement
substan ţiale</w>
sp ir
s k</w>
reconcili ere</w>
propriet ăţii</w>
postpon ed</w>
pir acy</w>
manag er</w>
loc al
haz ardous</w>
fru str
fix ed</w>
finanț ării</w>
fall en</w>
datori ile</w>
comerci alizare</w>
clari fication</w>
cin c
character ised</w>
ați uni</w>
avoi ded</w>
apari ţia</w>
am inte
Vi itorul</w>
S eli
Bl air</w>
B 7-0
An at
9 6</w>
6 9</w>
şed inţă</w>
îm pl
than king</w>
tec h
step ped</w>
revizu it</w>
reglement ează</w>
recipro city</w>
pil lars</w>
p age</w>
organis melor</w>
lim ite</w>
imigra ţiei</w>
hel p
evalu eze</w>
descri e</w>
de ți</w>
cred its</w>
cou p</w>
belgi ană</w>
argum ente</w>
app arent</w>
an ţe</w>
Pra gue</w>
Pap ad
Jan kovic</w>
IL O</w>
Dimit rova</w>
Auth orities</w>
14 0</w>
tră i</w>
tr age</w>
stre am
st abile</w>
so il</w>
sh r
se zon
ro mii</w>
psy ch
oblig aţiilor</w>
med al</w>
guvernament al</w>
gu ard</w>
evolu ţia</w>
do esn</w>
dead lines</w>
cl aritate</w>
ci tit</w>
centr ala</w>
birocr atice</w>
b adly</w>
augh ter</w>
ampl u</w>
acţion at</w>
Ukraini an</w>
Subi ect</w>
Silaj dzic</w>
Mari ja</w>
G ER
- M
ă ții</w>
întreb ăm</w>
îngrijor aţi</w>
în alţi</w>
vorb itori</w>
urn s</w>
t sunam
slu j
sh op</w>
sel ected</w>
ran ked</w>
pre serv
pe z</w>
parlament arii</w>
ow n-
lup tat</w>
luc rul</w>
hund red</w>
h âr
every where</w>
er in
ed ic
distr use</w>
dem ers</w>
ch a
at ure</w>
apo log
ail ing</w>
ac ies</w>
Un g
Schwar z-Schilling</w>
I o
D PS</w>
în ăl
w w
ver it
urmă rească</w>
tră iască</w>
transform ation</w>
roc k</w>
potenți al</w>
per secu
pat ra</w>
oppon ents</w>
op un
oblig ă</w>
man ovic</w>
inf ect
i -am</w>
h es
gener aţii</w>
distan ţă</w>
cop y
contribu ția</w>
cer inţelor</w>
bigg er</w>
anim alele</w>
S ports</w>
Pi er
M eta</w>
M es
Liber ties</w>
Cul turii</w>
îngrijor at</w>
înfr un
înfiinţ ată</w>
us al</w>
urmări ţi</w>
tur ce</w>
stri kes</w>
roş u</w>
pursu ing</w>
prolifer ation</w>
plan et</w>
parteneri atului</w>
ist anul</w>
industri i</w>
h one</w>
finan ţe</w>
eveniment ul</w>
euro- atlantică</w>
erus al
dispar i
defin it</w>
ciprio ţii</w>
cap ture</w>
bre aches</w>
b li
Vot ez</w>
Refer itor</w>
R est
Problem ele</w>
P raga</w>
ăr ate</w>
z ec
tex tului</w>
susțin em</w>
sur a</w>
s or</w>
răma se</w>
rec enta</w>
re alist</w>
pu ş
pre ocupă</w>
practic a</w>
pas sport</w>
ordon at</w>
on ate</w>
olan dez</w>
occup ation</w>
moder ate</w>
justi ficat</w>
investi m</w>
inform a</w>
exploat are</w>
est er</w>
deţin ute</w>
de ma
cur tea</w>
convic tion</w>
conduc ting</w>
concre tă</w>
bil ls</w>
avan sa</w>
ade n</w>
accoun table</w>
abord ării</w>
M and
K all
GER B</w>
Exper ts</w>
D et
Ch ar
B y
Ad erarea</w>
A P
A K</w>
înto arcă</w>
încăl cat</w>
vie ţile</w>
urmări rea</w>
un resolved</w>
tradi ţional</w>
sâr bo-
sur plus</w>
supp liers</w>
mo re
mecanis mului</w>
mean time</w>
may or</w>
liquid ity</w>
larg e-scale</w>
imigran ţilor</w>
harmon ise</w>
clau ză</w>
clau ses</w>
bol ilor</w>
belong ing</w>
at om</w>
administ rarea</w>
ac opere</w>
UNH CR</w>
Tribun alului</w>
Ombudsman ului</w>
Nim etz</w>
Mlad jan</w>
J ud
J ov
J ak
Iniţi ativa</w>
Conven ţiei</w>
Belar u
B it
9 3</w>
. com</w>
înv ins</w>
w inter</w>
tur bul
tranzac țiile</w>
se siunii</w>
safegu ards</w>
re h
re construcţia</w>
pregăti rile</w>
organiz are</w>
ordin ii</w>
o duc
neces itate</w>
naţi unile</w>
investig aţie</w>
inter vină</w>
inten ance</w>
illu str
fel ong</w>
efici enței</w>
ea za</w>
di stric
bl ed</w>
bari erele</w>
Slov ak</w>
Sim il
S ome
Mini ştri</w>
Mad agas
Kath imer
Din tre</w>
Aș a</w>
Ac ord</w>
înregist rarea</w>
tră im</w>
stri ve</w>
sea s</w>
răspân d
refugi ați</w>
rec ycl
plani ficarea</w>
legi time</w>
justi ție</w>
isol ated</w>
investig ated</w>
int a</w>
infr acţiuni</w>
hy dro
extraordin ar</w>
ex it</w>
en shr
e tică</w>
du bi
dov e
dictator ship</w>
deven ind</w>
cor rupt</w>
consider ations</w>
com emor
celebr ate</w>
amin ti
T et
Soci ety</w>
Sal onic</w>
Rezultat ul</w>
Parteneri atului</w>
Jadran ka</w>
Feme ile</w>
Cam erei</w>
C EC</w>
20 -
2 7-
y iel
weak nesses</w>
viit oarei</w>
ven s</w>
to m</w>
tim etable</w>
ti ei</w>
sărb ăto
symbo lic</w>
survi val</w>
suede ze</w>
substan ţial</w>
stră mut
simplif ying</w>
sign als</w>
salvgar dare</w>
s ever
răspun derea</w>
reset tlement</w>
re abil
preserv ation</w>
po sts</w>
ph il
of -
occu pi
more over</w>
li ked</w>
li ability</w>
help ful</w>
gan g</w>
fo şti</w>
felic it
famili ar</w>
f ly</w>
don or</w>
diver tisment</w>
dez afect
democr at</w>
dat ează</w>
coordon at</w>
compromis es</w>
comentari u</w>
co re
aştept ările</w>
ar dă</w>
angaj amentelor</w>
analy se</w>
UN IC
U tili
OI M</w>
Kathimer ini</w>
Itali ei</w>
H ell
F rat
C ath
B P</w>
3 1st</w>
wor ried</w>
vin de</w>
val ori
universită ţi</w>
tel ui</w>
se şti</w>
rezolv at</w>
retr as</w>
respec tiva</w>
renun ţe</w>
recuno aște</w>
ra i
pier dem</w>
p .m.</w>
occident ale</w>
mar chează</w>
lum ină</w>
limit ing</w>
inst all
fore stry</w>
ev asion</w>
et ape</w>
e ws</w>
dis abilities</w>
dev ast
cam i
bank rup
avantaj ul</w>
agen ţiilor</w>
ad mitted</w>
acord are</w>
R N</w>
Per so
Ferre ro-
Danem arca</w>
ului- verbal</w>
tr aver
surren der</w>
st em
so s</w>
ră st
retur ns</w>
reglement ării</w>
proces ului-verbal</w>
prin t</w>
plani ficată</w>
pacien ților</w>
own- initiative</w>
ofer ta</w>
n enum
min oritare</w>
lo ve</w>
ic ul</w>
establish es</w>
după- ami
dori ţi</w>
dezbat erilor</w>
desfăș oară</w>
deploy ed</w>
de cursul</w>
de commission
conf u
compon ent</w>
compet enţă</w>
circumstan ţe</w>
broadcast ing</w>
brea king</w>
bl ack</w>
bene fic</w>
asem ăn
ac on
Vu k
T O
S ek
P es
Ot toman</w>
L V</w>
Kur ds</w>
Ferrero- Waldner</w>
Adop tarea</w>
A rea</w>
2 m</w>
ă zeci</w>
under stand
uman ităţii</w>
trecut ul</w>
rezon abile</w>
re instal
proces elor</w>
pi ec
licit aţie</w>
k ova</w>
isi c</w>
g est
expl ains</w>
etichet are</w>
drum uri</w>
depend ency</w>
compet ența</w>
cer ințe</w>
cau ght</w>
au sp
apro be</w>
analiz e</w>
actu alului</w>
acqu ired</w>
Wh o</w>
Vot area</w>
Stu dies</w>
S oren</w>
S ak
K emal</w>
F our
Er gen
Comer ţ</w>
Bil jana</w>
Bar ack</w>
B ir
Administr ation</w>
wor ry</w>
transfrontali er</w>
strong est</w>
so le</w>
ridic area</w>
ref usal</w>
pre t
organiz ațiile</w>
of er</w>
of en
mo thers</w>
min oritate</w>
lan seze</w>
lab el</w>
inaccept abile</w>
in j
hand le</w>
elimin ation</w>
el j</w>
ech ten
discrimin atory</w>
delic ate</w>
defini tiv</w>
de legate</w>
cre ând</w>
ch ev</w>
ces c</w>
categori e</w>
car ti
bo und
amest ec
altern atives</w>
Sw iss</w>
Sim sek</w>
SI DA</w>
SE PA</w>
Protec ţia</w>
Non etheless</w>
Li echten
Kov acevic</w>
Ju su
Gre at</w>
G abri
Dnev nik
Demetri s</w>
uriaş e</w>
tox ic</w>
super v
strugg ling</w>
solicit ând</w>
scenari o</w>
presid ents</w>
prerequis ite</w>
ned is
lin ia</w>
hot el</w>
ha vens</w>
greşe ală</w>
furniz ării</w>
firm a</w>
f light</w>
extraordin ară</w>
ev azi
complic ate</w>
cl aiming</w>
ay a</w>
al mente</w>
accid ente</w>
a er</w>
Tuz la</w>
Sal ut
N i
J ar
Bu reau</w>
A tom
&apos; re</w>
tot ale</w>
tiv elor</w>
simpli ficare</w>
ses sions</w>
ret ail</w>
raport orii</w>
ra d</w>
practic ilor</w>
pov ară</w>
paş nică</w>
on oare</w>
ide m</w>
for war
fo s
din ii</w>
di a</w>
demn itatea</w>
de asupra</w>
ci t</w>
cen z
cam pion
băn cii</w>
angaj ează</w>
alătur a</w>
adap ted</w>
acoper ite</w>
Nu clear</w>
Luxemb urg</w>
Lis t</w>
Euron ews</w>
Ear lier</w>
D ora</w>
Cup a</w>
utiliz atorilor</w>
ton ul</w>
su it</w>
spon sored</w>
sol ar</w>
smo king</w>
schimb ării</w>
s ală</w>
reli ef</w>
recomand are</w>
rec icl
pre mis
pericul oasă</w>
mar torii</w>
int ens</w>
informa rea</w>
im pun</w>
i ugosla
func tional</w>
disast rous</w>
depart ment</w>
ar gues</w>
acțion eze</w>
UNIC EF</w>
Re inf
Monet ar</w>
J ean</w>
Geor giei</w>
Frat tini</w>
Democr ate</w>
Ag ainst</w>
schimb ăm</w>
răspun surile</w>
ri si
remov ing</w>
re aliste</w>
origin ally</w>
num i</w>
mag n
lin ing</w>
lat ko</w>
kur zi</w>
jour ney</w>
gen etic</w>
g y</w>
fen omen
f ur</w>
excep tions</w>
emis sion</w>
disadvant aged</w>
devot ed</w>
datori e</w>
circum scrip
bari ere</w>
athlet es</w>
amăn un
agen ții</w>
aband on</w>
Sus țin</w>
Sud anul</w>
S uc
Reg ret</w>
Progre siste</w>
P f
Mla den</w>
Mar ii</w>
Kyr gy
J ord
Hon dur
Cor ruption</w>
CIT ES</w>
B N
Ay han</w>
Abo ve</w>
ț u
şedin ţa</w>
z ak</w>
vill ages</w>
următo arelor</w>
tri l
suver ane</w>
sugges tion</w>
secul ar
reac tions</w>
rapoar telor</w>
provi sional</w>
promis ing</w>
oblig aţii</w>
ne -
monitoriz eze</w>
mon thly</w>
ministeri al</w>
ma intenance</w>
jo curile</w>
is prez
integr at</w>
institu ţională</w>
indic ates</w>
i a
fost ei</w>
far m</w>
exemp tion</w>
diplom atică</w>
critic ile</w>
cont ac
br us
bil lions</w>
b ent</w>
abandon ed</w>
Y our</w>
Rec over
Priz ren</w>
O D
N 1</w>
Mau rit
M P</w>
Lip sa</w>
Instrum ent</w>
Gu cht</w>
E valu
ț ul</w>
Ș tim</w>
înţel eagă</w>
war s</w>
vâr f</w>
viz at</w>
ur ne</w>
telep hone</w>
sprijin ite</w>
ri cul
pu ţină</w>
pres sion</w>
plă nu
neg ativă</w>
neces ita</w>
mulţum iţi</w>
m ări</w>
extr ad
ed itori
distribu ţie</w>
dis man
comun iste</w>
combusti bil</w>
clash es</w>
cauz ată</w>
bankrup t
attemp ting</w>
assum ed</w>
ală tur</w>
Situ ația</w>
Recover y</w>
R acan</w>
Peti tions</w>
Gal il
G ar
B ow
An d
țin em</w>
ș col
wri ter</w>
tex telor</w>
să l
spokes person</w>
ri ver</w>
reti red</w>
re sume</w>
pro astă</w>
newsp apers</w>
islam ice</w>
ing -
inculp at</w>
il i</w>
high way</w>
h at
er ori</w>
eo li
en force</w>
diviz at</w>
dispozi ţii</w>
conşti ent</w>
clau ze</w>
ca să</w>
astri cht</w>
ap titu
ap eri
aliz ează</w>
ace ia</w>
ac ul
Mun cii</w>
Mediter ană</w>
Ma astricht</w>
Lju bl
Democra ţie</w>
Bo z
B on
8 4</w>
ți unea</w>
învecin ate</w>
înt or
încuraj at</w>
în locui</w>
vulner abili</w>
vo cea</w>
under taking</w>
unanim ous</w>
suspend at</w>
sper anţă</w>
sev ere
sati sf
rhet oric</w>
premi u</w>
porto foli
oblig aţi</w>
judecă to
hr ană</w>
hospit als</w>
guvernan ței</w>
gra ss
fugi tives</w>
endos je</w>
efici enti
divi de</w>
diversi fication</w>
dezvălu it</w>
determin ing</w>
contribuabil ii</w>
conce diu</w>
cl auz
blo od</w>
accept abilă</w>
R aj
P apo
Oper aţi
N ine</w>
Jusu f</w>
Dnevnik .bg</w>
Con sul
ţion ează</w>
întreb ărilor</w>
ultr aperi
[...]
